#include "tdscpp.h"

using namespace std;

static const uint32_t weights[] = {
    0xffffffff, 0x6030202, 0x6040202, 0x6050202, 0x6060202, 0x6070202, 0x6080202, 0x6090202,
    0x60a0202, 0x7050202, 0x7060202, 0x7070202, 0x7080202, 0x7090202, 0x60b0202, 0x60c0202,
    0x60d0202, 0x60e0202, 0x60f0202, 0x6100202, 0x6110202, 0x6120202, 0x6130202, 0x6140202,
    0x6150202, 0x6160202, 0x6170202, 0x6180202, 0x6190202, 0x61a0202, 0x61b0202, 0x61c0202,
    0x7020202, 0x71c0202, 0x71d0202, 0x71f0202, 0x7210202, 0x7230202, 0x7250202, 0x6800202,
    0x7270202, 0x72a0202, 0x72d0202, 0x8030202, 0x72f0202, 0x6820202, 0x7330202, 0x7350202,
    0xc030202, 0xc210202, 0xc330202, 0xc460202, 0xc580202, 0xc6a0202, 0xc7d0202, 0xc900202,
    0xca20202, 0xcb40202, 0x7370202, 0x73a0202, 0x80e0202, 0x8120202, 0x8140202, 0x73c0202,
    0x73e0202, 0xe020212, 0xe090212, 0xe0a0212, 0xe1a0212, 0xe210212, 0xe230212, 0xe250212,
    0xe2c0212, 0xe320212, 0xe350212, 0xe360212, 0xe480212, 0xe510212, 0xe700212, 0xe7c0212,
    0xe7e0212, 0xe890212, 0xe8a0212, 0xe910212, 0xe990212, 0xe9f0212, 0xea20212, 0xea40212,
    0xea60212, 0xea70212, 0xea90212, 0x73f0202, 0x7410202, 0x7420202, 0x7430202, 0x7440202,
    0x7480202, 0xe020202, 0xe090202, 0xe0a0202, 0xe1a0202, 0xe210202, 0xe230202, 0xe250202,
    0xe2c0202, 0xe320202, 0xe350202, 0xe360202, 0xe480202, 0xe510202, 0xe700202, 0xe7c0202,
    0xe7e0202, 0xe890202, 0xe8a0202, 0xe910202, 0xe990202, 0xe9f0202, 0xea20202, 0xea40202,
    0xea60202, 0xea70202, 0xea90202, 0x74a0202, 0x74c0202, 0x74e0202, 0x7500202, 0x61d0202,
    0x61e0202, 0x61f0202, 0x6200202, 0x6210202, 0x6220202, 0x6230202, 0x6240202, 0x6250202,
    0x6260202, 0x6270202, 0x6280202, 0x6290202, 0x62a0202, 0x62b0202, 0x62c0202, 0x62d0202,
    0x62e0202, 0x62f0202, 0x6300202, 0x6310202, 0x6320202, 0x6330202, 0x6340202, 0x6350202,
    0x6360202, 0x6370202, 0x6380202, 0x6390202, 0x63a0202, 0x63b0202, 0x63c0202, 0x63d0202,
    0x7040202, 0x7510202, 0xa020202, 0xa030202, 0xa040202, 0xa050202, 0x7520202, 0xa060202,
    0x7530202, 0xa070202, 0xe02030e, 0x8180202, 0xa080202, 0x6830202, 0xa090202, 0x7540202,
    0xa0a0202, 0x8170202, 0xc33020e, 0xc46020e, 0x7550202, 0xa0b0202, 0xa0c0202, 0xa0d0202,
    0x7560202, 0xc21020e, 0xe7c030e, 0x81a0202, 0xc150202, 0xc190202, 0xc1d0202, 0x7570202,
    0xe020f12, 0xe020e12, 0xe021212, 0xe021912, 0xe021312, 0xe021a12, 0xffffffff, 0xe0a1c12,
    0xe210f12, 0xe210e12, 0xe211212, 0xe211312, 0xe320f12, 0xe320e12, 0xe321212, 0xe321312,
    0xe1a6812, 0xe701912, 0xe7c0f12, 0xe7c0e12, 0xe7c1212, 0xe7c1912, 0xe7c1312, 0x81c0202,
    0xe7c2112, 0xe9f0f12, 0xe9f0e12, 0xe9f1212, 0xe9f1312, 0xea70e12, 0xffffffff, 0xffffffff,
    0xe020f02, 0xe020e02, 0xe021202, 0xe021902, 0xe021302, 0xe021a02, 0xffffffff, 0xe0a1c02,
    0xe210f02, 0xe210e02, 0xe211202, 0xe211302, 0xe320f02, 0xe320e02, 0xe321202, 0xe321302,
    0xe1a6802, 0xe701902, 0xe7c0f02, 0xe7c0e02, 0xe7c1202, 0xe7c1902, 0xe7c1302, 0x81d0202,
    0xe7c2102, 0xe9f0f02, 0xe9f0e02, 0xe9f1202, 0xe9f1302, 0xea70e02, 0xffffffff, 0xea71302,
    0xe021712, 0xe021702, 0xe021512, 0xe021502, 0xe021b12, 0xe021b02, 0xe0a0e12, 0xe0a0e02,
    0xe0a1212, 0xe0a1202, 0xe0a1012, 0xe0a1002, 0xe0a1412, 0xe0a1402, 0xe1a1412, 0xe1a1402,
    0xe1a1e12, 0xe1a1e02, 0xe211712, 0xe211702, 0xe211512, 0xe211502, 0xe211012, 0xe211002,
    0xe211b12, 0xe211b02, 0xe211412, 0xe211402, 0xe251212, 0xe251202, 0xe251512, 0xe251502,
    0xe251012, 0xe251002, 0xe251c12, 0xe251c02, 0xe2c1212, 0xe2c1202, 0xe2c1e12, 0xe2c1e02,
    0xe321912, 0xe321902, 0xe321712, 0xe321702, 0xe321512, 0xe321502, 0xe321b12, 0xe321b02,
    0xe321012, 0xe320302, 0xffffffff, 0xffffffff, 0xe351212, 0xe351202, 0xe361c12, 0xe361c02,
    0xe360302, 0xe480e12, 0xe480e02, 0xe481c12, 0xe481c02, 0xe481412, 0xe481402, 0xe481112,
    0xe481102, 0xe481f12, 0xe481f02, 0xe700e12, 0xe700e02, 0xe701c12, 0xe701c02, 0xe701412,
    0xe701402, 0xe704802, 0xe740212, 0xe740202, 0xe7c1712, 0xe7c1702, 0xe7c1512, 0xe7c1502,
    0xe7c1d12, 0xe7c1d02, 0xffffffff, 0xffffffff, 0xe8a0e12, 0xe8a0e02, 0xe8a1c12, 0xe8a1c02,
    0xe8a1412, 0xe8a1402, 0xe910e12, 0xe910e02, 0xe911212, 0xe911202, 0xe911c12, 0xe911c02,
    0xe911412, 0xe911402, 0xe991c12, 0xe991c02, 0xe991412, 0xe991402, 0xe9e1e12, 0xe9e1e02,
    0xe9f1912, 0xe9f1902, 0xe9f1712, 0xe9f1702, 0xe9f1512, 0xe9f1502, 0xe9f1a12, 0xe9f1a02,
    0xe9f1d12, 0xe9f1d02, 0xe9f1b12, 0xe9f1b02, 0xea41212, 0xea41202, 0xea71212, 0xea71202,
    0xea71312, 0xea90e12, 0xea90e02, 0xea91012, 0xea91002, 0xea91412, 0xea91402, 0xe960202,
    0xe091e02, 0xe094312, 0xe096812, 0xe096802, 0xe098712, 0xe098702, 0xe0a7d12, 0xe0a4312,
    0xe0a4302, 0xe1b0412, 0xe1a4312, 0xe1a1e12, 0xe1a1e02, 0xe1a7c02, 0xe217d12, 0xe217e12,
    0xe217b12, 0xe234312, 0xe237b02, 0xe254312, 0xe257b12, 0xe2c7b02, 0xe327b12, 0xe321e12,
    0xe364312, 0xe364302, 0xe481e02, 0xe482002, 0xe517b12, 0xe704312, 0xe707b02, 0xe7c2012,
    0xe7c5212, 0xe7c5202, 0xe7c7c12, 0xe7c7c02, 0xe7e4312, 0xe7e4302, 0xe8a7b12, 0xe918712,
    0xe918702, 0xe917c12, 0xe917f02, 0xe995702, 0xe994312, 0xe994302, 0xe995912, 0xe9f5212,
    0xe9f5202, 0xe9f7b12, 0xea27b12, 0xea74312, 0xea74302, 0xea91e12, 0xea91e02, 0xeaa0212,
    0xeaa7c12, 0xeaa7c02, 0xeaa7d02, 0xc330302, 0xc6b0312, 0xc6b0302, 0xeb30202, 0xea47b02,
    0x81e0202, 0x81f0202, 0x8200202, 0x7580202, 0xffffffff, 0xffffffff, 0xffffffff, 0xffffffff,
    0xffffffff, 0xffffffff, 0xffffffff, 0xffffffff, 0xffffffff, 0xe021412, 0xe021402, 0xe321412,
    0xe321402, 0xe7c1412, 0xe7c1402, 0xe9f1412, 0xe9f1402, 0xe9f2812, 0xe9f2802, 0xe9f1f12,
    0xe9f1f02, 0xe9f2512, 0xe9f2502, 0xe9f2012, 0xe9f2002, 0xe217d02, 0xe022812, 0xe022802,
    0xe022512, 0xe022502, 0xffffffff, 0xffffffff, 0xe251e12, 0xe251e02, 0xe251412, 0xe251402,
    0xe361412, 0xe361402, 0xe7c1b12, 0xe7c1b02, 0xe7c3012, 0xe7c3002, 0xeaa1412, 0xeaa1402,
    0xe351402, 0xffffffff, 0xffffffff, 0xffffffff, 0xe250e12, 0xe250e02, 0xffffffff, 0xffffffff,
    0xffffffff, 0xffffffff, 0xe022612, 0xe022602, 0xffffffff, 0xffffffff, 0xe7c2b12, 0xe7c2b02,
    0xe024412, 0xe024402, 0xe024612, 0xe024602, 0xe214412, 0xe214402, 0xe214612, 0xe214602,
    0xe324412, 0xe324402, 0xe324612, 0xe324602, 0xe7c4412, 0xe7c4402, 0xe7c4612, 0xe7c4602,
    0xe8a4412, 0xe8a4402, 0xe8a4612, 0xe8a4602, 0xe9f4412, 0xe9f4402, 0xe9f4612, 0xe9f4602,
    0xffffffff, 0xffffffff, 0xffffffff, 0xffffffff, 0xffffffff, 0xffffffff, 0xffffffff, 0xffffffff,
    0xffffffff, 0xffffffff, 0xffffffff, 0xffffffff, 0xffffffff, 0xffffffff, 0xffffffff, 0xffffffff,
    0xffffffff, 0xffffffff, 0xffffffff, 0xffffffff, 0xffffffff, 0xffffffff, 0xffffffff, 0xffffffff,
    0xffffffff, 0xffffffff, 0xffffffff, 0xffffffff, 0xffffffff, 0xffffffff, 0xffffffff, 0xffffffff,
    0xffffffff, 0xffffffff, 0xffffffff, 0xffffffff, 0xffffffff, 0xffffffff, 0xffffffff, 0xffffffff,
    0xffffffff, 0xffffffff, 0xffffffff, 0xffffffff, 0xffffffff, 0xffffffff, 0xffffffff, 0xffffffff,
    0xffffffff, 0xffffffff, 0xffffffff, 0xffffffff, 0xffffffff, 0xffffffff, 0xffffffff, 0xffffffff,
    0xe027b02, 0xe027c02, 0xe027d02, 0xe094302, 0xe0a7b02, 0xe0a7c02, 0xe1a5902, 0xe1a4302,
    0xe218002, 0xe217e02, 0xe217f02, 0xe217b02, 0xe218102, 0xe218202, 0xe218302, 0xe351e02,
    0xe254302, 0xe257d02, 0xe25020a, 0xe257b02, 0xe257c02, 0xe2c7c02, 0xe2c4302, 0xe2d4302,
    0xe321e02, 0xe327b02, 0xe32020a, 0xe481902, 0xe487b02, 0xe485902, 0xe487c02, 0xe517b02,
    0xe517c02, 0xe514302, 0xe704302, 0xe705902, 0xe70020a, 0xe7c2002, 0xe7c7b0a, 0xe7c7e02,
    0xe7e7b02, 0xe8a7b02, 0xe8a7c02, 0xe8a7d02, 0xe8a7e02, 0xe8a4302, 0xe8a7f02, 0xe8a8002,
    0xe8a020a, 0xe8a7b0a, 0xe914302, 0xe217c02, 0xe354302, 0xe218402, 0xe218502, 0xe997b02,
    0xe995902, 0xe9f1e02, 0xe9f7b02, 0xea27b02, 0xea27c02, 0xea47c02, 0xea77b02, 0xea7020a,
    0xea95902, 0xea97e02, 0xeaa0202, 0xeaa7e02, 0xeb30302, 0xeb30402, 0xeb30502, 0xe0a8802,
    0xeb40202, 0xe09020a, 0xe218602, 0xe25430a, 0xe2c020a, 0xe357b02, 0xe367b02, 0xe48020a,
    0xe894302, 0xeb30602, 0xeb30b02, 0xe1c7b02, 0xe1a7b02, 0xe1c7c02, 0xe9d7b02, 0xe997c02,
    0xe997d02, 0xffffffff, 0xffffffff, 0xffffffff, 0xffffffff, 0xffffffff, 0xffffffff, 0xffffffff,
    0xe2c7e02, 0xe2c7f02, 0xe357e02, 0xe8a8102, 0xe8a8202, 0xe8a8302, 0xe8a840a, 0xea47e02,
    0xea77e02, 0x1000c00, 0x1001900, 0x1004500, 0x1004600, 0x1004700, 0x1007700, 0x1007800,
    0x1003f00, 0x1007900, 0x1007a00, 0x1007b00, 0x1007c00, 0x1007d00, 0x7430302, 0x7590202,
    0x1004000, 0x7540302, 0x7550302, 0x7480302, 0x1005a00, 0x1006200, 0x1007e00, 0x1007f00,
    0x7db0202, 0x1008100, 0x1008200, 0x1008300, 0x1005000, 0x1005100, 0x1005200, 0x1005300,
    0x7590302, 0x75a0202, 0x75b0202, 0x75c0202, 0x75d0202, 0x75e0202, 0x1008400, 0xffffffff,
    0xe257e02, 0xe487e02, 0xe917e02, 0xea67e02, 0x1008500, 0x1008600, 0x1008700, 0x1008800,
    0x1008900, 0x1008a00, 0xffffffff, 0xffffffff, 0xffffffff, 0xffffffff, 0xffffffff, 0xffffffff,
    0xffffffff, 0xffffffff, 0xffffffff, 0xffffffff, 0xffffffff, 0xffffffff, 0xffffffff, 0xffffffff,
    0xffffffff, 0xffffffff, 0xffffffff, 0xffffffff, 0xffffffff, 0xffffffff, 0xffffffff, 0xffffffff,
    0x1000d00, 0x1000c00, 0x1001000, 0x1001700, 0x1001500, 0x1003e00, 0x1001300, 0x1000e00,
    0x1001100, 0x1003f00, 0x1001800, 0x1001b00, 0x1001200, 0x1000300, 0x1004100, 0x1004200,
    0x1004300, 0x1004400, 0x1004500, 0x1004600, 0x1004700, 0x1004800, 0x1004900, 0x1004a00,
    0x1004b00, 0x1004c00, 0x1004d00, 0x1004e00, 0x1004f00, 0x1005000, 0x1005100, 0x1005200,
    0x1005300, 0x1005400, 0x1005500, 0x1005600, 0x1005700, 0x1005800, 0x1005900, 0x1001a00,
    0x1001900, 0x1005a00, 0x1005b00, 0x1005c00, 0x1005d00, 0x1005e00, 0x1005f00, 0x1006000,
    0x1006100, 0x1006200, 0x1006300, 0x1006400, 0x1006500, 0x1001c00, 0x1001c00, 0x1001d00,
    0x1001e00, 0x1006700, 0x1006800, 0x1006900, 0x1006a00, 0x1006b00, 0x1006c00, 0x1006d00,
    0x1006e00, 0x1006f00, 0x1008d00, 0x1008e00, 0x1001400, 0x1009000, 0x1007400, 0x1007500,
    0x1007600, 0xffffffff, 0xffffffff, 0xffffffff, 0xffffffff, 0xffffffff, 0xffffffff, 0xffffffff,
    0xffffffff, 0xffffffff, 0xffffffff, 0xffffffff, 0xffffffff, 0xffffffff, 0xffffffff, 0xffffffff,
    0xffffffff, 0xffffffff, 0xffffffff, 0xffffffff, 0xffffffff, 0xffffffff, 0xffffffff, 0xffffffff,
    0xffffffff, 0xffffffff, 0xffffffff, 0xffffffff, 0xffffffff, 0xffffffff, 0xffffffff, 0xffffffff,
    0xffffffff, 0xffffffff, 0xffffffff, 0xffffffff, 0xffffffff, 0xffffffff, 0xffffffff, 0xffffffff,
    0xffffffff, 0xffffffff, 0xffffffff, 0xffffffff, 0x75f0202, 0x7600202, 0xffffffff, 0xffffffff,
    0xffffffff, 0xffffffff, 0x7610202, 0xffffffff, 0xffffffff, 0xffffffff, 0x7620202, 0xffffffff,
    0xffffffff, 0xffffffff, 0xffffffff, 0xffffffff, 0x7630202, 0x7640202, 0xf020512, 0xffffffff,
    0xf060512, 0xf080512, 0xf0a0512, 0xffffffff, 0xf100512, 0xffffffff, 0xf150512, 0xf190512,
    0xf0a1602, 0xf020212, 0xf030212, 0xf040212, 0xf050212, 0xf060212, 0xf070212, 0xf080212,
    0xf090212, 0xf0a0212, 0xf0b0212, 0xf0c0212, 0xf0d0212, 0xf0e0212, 0xf0f0212, 0xf100212,
    0xf110212, 0xf120212, 0xffffffff, 0xf130212, 0xf140212, 0xf150212, 0xf160212, 0xf170212,
    0xf180212, 0xf190212, 0xf0a1312, 0xf151312, 0xf020502, 0xf060502, 0xf080502, 0xf0a0502,
    0xf151602, 0xf020202, 0xf030202, 0xf040202, 0xf050202, 0xf060202, 0xf070202, 0xf080202,
    0xf090202, 0xf0a0202, 0xf0b0202, 0xf0c0202, 0xf0d0202, 0xf0e0202, 0xf0f0202, 0xf100202,
    0xf110202, 0xf120202, 0xf13020a, 0xf130202, 0xf140202, 0xf150202, 0xf160202, 0xf170202,
    0xf180202, 0xf190202, 0xf0a1302, 0xf151302, 0xf100502, 0xf150502, 0xf190502, 0xffffffff,
    0xf030302, 0xf090302, 0xf151b12, 0xf154412, 0xf151312, 0xf160302, 0xf110302, 0xffffffff,
    0xffffffff, 0xffffffff, 0xf400212, 0xf400202, 0xf420212, 0xf420202, 0xf440212, 0xf440202,
    0xf460212, 0xf460202, 0xf480212, 0xf480202, 0xf4a0212, 0xf4a0202, 0xf4c0212, 0xf4c0202,
    0xf4e0212, 0xf4e0202, 0xf500212, 0xf500202, 0xf520212, 0xf520202, 0xf540212, 0xf540202,
    0xf0b0302, 0xf120302, 0xf130402, 0xffffffff, 0xffffffff, 0xffffffff, 0xffffffff, 0xffffffff,
    0xffffffff, 0xffffffff, 0xffffffff, 0xffffffff, 0xffffffff, 0xffffffff, 0xffffffff, 0xffffffff,
    0xffffffff, 0x10181312, 0x10150212, 0x100f0e12, 0x101b0212, 0x10240212, 0x102a0212, 0x102d0212,
    0x10330212, 0x103c0212, 0x10450212, 0x10570212, 0x10360e12, 0xffffffff, 0x105d0212, 0x106f0212,
    0x10060212, 0x10090212, 0x100c0212, 0x100f0212, 0x10120212, 0x10180212, 0x101e0212, 0x10210212,
    0x10270212, 0x10300212, 0x10360212, 0x10390212, 0x103f0212, 0x10420212, 0x10480212, 0x104b0212,
    0x104e0212, 0x10510212, 0x10540212, 0x105a0212, 0x10630212, 0x10660212, 0x10690212, 0x106c0212,
    0x10720212, 0x10750212, 0x10780212, 0x107b0212, 0x107e0212, 0x10810212, 0x10840212, 0x10870212,
    0x10060202, 0x10090202, 0x100c0202, 0x100f0202, 0x10120202, 0x10180202, 0x101e0202, 0x10210202,
    0x10270202, 0x10300202, 0x10360202, 0x10390202, 0x103f0202, 0x10420202, 0x10480202, 0x104b0202,
    0x104e0202, 0x10510202, 0x10540202, 0x105a0202, 0x10630202, 0x10660202, 0x10690202, 0x106c0202,
    0x10720202, 0x10750202, 0x10780202, 0x107b0202, 0x107e0202, 0x10810202, 0x10840202, 0x10870202,
    0xffffffff, 0x10181302, 0x10150202, 0x100f0e02, 0x101b0202, 0x10240202, 0x102a0202, 0x102d0202,
    0x10330202, 0x103c0202, 0x10450202, 0x10570202, 0x10360e02, 0xffffffff, 0x105d0202, 0x106f0202,
    0x108d0212, 0x108d0202, 0x10900212, 0x10420302, 0x10930212, 0x10930202, 0x10960212, 0x10960202,
    0x10990212, 0x10990202, 0x109c0212, 0x109c0202, 0x109f0212, 0x109f0202, 0x10a20212, 0x10a20202,
    0x10a50212, 0x10a50202, 0x10a80212, 0x10a80202, 0x10ab0212, 0x10ab0202, 0x10ab4612, 0x10ab4602,
    0x10ae0212, 0x10ae0202, 0x10b10212, 0x10b10202, 0x10b40212, 0x10b40202, 0x10b70212, 0x10b70202,
    0x10ba0212, 0x10ba0202, 0xcdb3702, 0x1009400, 0x1009500, 0x1009600, 0x1009700, 0xffffffff,
    0xffffffff, 0xffffffff, 0xffffffff, 0xffffffff, 0xffffffff, 0xffffffff, 0xffffffff, 0xffffffff,
    0x100f0312, 0x100f0302, 0x100f1a12, 0x100f1a02, 0x100f0512, 0x100f0502, 0x101e0712, 0x101e0702,
    0x10211a12, 0x10211a02, 0x10361712, 0x10361702, 0x10360912, 0x10360902, 0x10360412, 0x10360402,
    0x10360a12, 0x10360a02, 0x10420712, 0x10420702, 0x10420812, 0x10420802, 0x104b0512, 0x104b0502,
    0x10480512, 0x10480502, 0x10511a12, 0x10511a02, 0x10540712, 0x10540702, 0x105a0b12, 0x105a0b02,
    0x10600212, 0x10600202, 0x10661712, 0x10661702, 0x10690312, 0x10690302, 0x106c0812, 0x106c0702,
    0x106c0912, 0x106c0902, 0x10420912, 0x10420902, 0x10180512, 0x10180502, 0x10181712, 0x10181702,
    0x102a0302, 0x101e1512, 0x101e1502, 0x10360512, 0x10360502, 0xffffffff, 0xffffffff, 0x10420a12,
    0x10420a02, 0xffffffff, 0xffffffff, 0x106c0d12, 0x106c0d02, 0xffffffff, 0xffffffff, 0xffffffff,
    0xffffffff, 0xffffffff, 0xffffffff, 0xffffffff, 0xffffffff, 0xffffffff, 0xffffffff, 0xffffffff,
    0x10181e12, 0x10181e02, 0xffffffff, 0xffffffff, 0xffffffff, 0xffffffff, 0xffffffff, 0xffffffff,
    0xffffffff, 0xffffffff, 0xffffffff, 0xffffffff, 0xffffffff, 0xffffffff, 0xffffffff, 0xffffffff,
    0x10490212, 0x10490202, 0xffffffff, 0xffffffff, 0xffffffff, 0xffffffff, 0xffffffff, 0xffffffff,
    0xffffffff, 0xffffffff, 0xffffffff, 0xffffffff, 0xffffffff, 0xffffffff, 0xffffffff, 0xffffffff,
    0xffffffff, 0xffffffff, 0xffffffff, 0xffffffff, 0xffffffff, 0xffffffff, 0xffffffff, 0xffffffff,
    0xffffffff, 0xffffffff, 0xffffffff, 0xffffffff, 0xffffffff, 0xffffffff, 0xffffffff, 0xffffffff,
    0xffffffff, 0xffffffff, 0xffffffff, 0xffffffff, 0xffffffff, 0xffffffff, 0xffffffff, 0xffffffff,
    0xffffffff, 0xffffffff, 0xffffffff, 0xffffffff, 0xffffffff, 0xffffffff, 0xffffffff, 0xffffffff,
    0xffffffff, 0xffffffff, 0xffffffff, 0xffffffff, 0xffffffff, 0xffffffff, 0xffffffff, 0xffffffff,
    0xffffffff, 0xffffffff, 0xffffffff, 0xffffffff, 0xffffffff, 0xffffffff, 0xffffffff, 0xffffffff,
    0xffffffff, 0xffffffff, 0xffffffff, 0xffffffff, 0xffffffff, 0xffffffff, 0xffffffff, 0xffffffff,
    0xffffffff, 0x11030212, 0x11040212, 0x11050212, 0x11060212, 0x11070212, 0x11080212, 0x11090212,
    0x110a0212, 0x110b0212, 0x110c0212, 0x110d0212, 0x110e0212, 0x110f0212, 0x11100212, 0x11110212,
    0x11120212, 0x11130212, 0x11140212, 0x11150212, 0x11160212, 0x11170212, 0x11180212, 0x11190212,
    0x111a0212, 0x111b0212, 0x111c0212, 0x111d0212, 0x111e0212, 0x111f0212, 0x11200212, 0x11210212,
    0x11220212, 0x11230212, 0x11240212, 0x11250212, 0x11260212, 0x11270212, 0x11280212, 0xffffffff,
    0xffffffff, 0x1009800, 0x1009900, 0x7650202, 0x7660202, 0x7670202, 0x7680202, 0x7690202,
    0xffffffff, 0x11030202, 0x11040202, 0x11050202, 0x11060202, 0x11070202, 0x11080202, 0x11090202,
    0x110a0202, 0x110b0202, 0x110c0202, 0x110d0202, 0x110e0202, 0x110f0202, 0x11100202, 0x11110202,
    0x11120202, 0x11130202, 0x11140202, 0x11150202, 0x11160202, 0x11170202, 0x11180202, 0x11190202,
    0x111a0202, 0x111b0202, 0x111c0202, 0x111d0202, 0x111e0202, 0x111f0202, 0x11200202, 0x11210202,
    0x11220202, 0x11230202, 0x11240202, 0x11250202, 0x11260202, 0x11270202, 0x11280202, 0xffffffff,
    0xffffffff, 0x76a0202, 0xffffffff, 0xffffffff, 0xffffffff, 0xffffffff, 0xffffffff, 0xffffffff,
    0xffffffff, 0x1000300, 0x1000400, 0x1000500, 0x1000600, 0x1000700, 0x1000800, 0x1000900,
    0x1000a00, 0x1000b00, 0x1000c00, 0x1000d00, 0x1000e00, 0x1000f00, 0x1001000, 0x1001100,
    0x1001200, 0x1001300, 0xffffffff, 0x1001500, 0x1001600, 0x1001700, 0x1001800, 0x1001900,
    0x1001a00, 0x1001b00, 0x1001c00, 0x1001d00, 0x1001e00, 0x1001f00, 0x1002000, 0x1002100,
    0x1002200, 0x1002300, 0x1002400, 0x1002500, 0x1002600, 0x1002700, 0x1002800, 0x1002900,
    0x1002a00, 0x1002b00, 0xffffffff, 0x1002d00, 0x1002e00, 0x1002f00, 0x76b0202, 0x1003000,
    0x1003100, 0x1003200, 0x1003300, 0x76d0202, 0xffffffff, 0xffffffff, 0xffffffff, 0xffffffff,
    0xffffffff, 0xffffffff, 0xffffffff, 0xffffffff, 0xffffffff, 0xffffffff, 0xffffffff, 0xffffffff,
    0x12020202, 0x12030202, 0x12040202, 0x12050202, 0x12060202, 0x12070202, 0x12080202, 0x12090202,
    0x120a0202, 0x120b0202, 0x120c0202, 0x120c0212, 0x120e0202, 0x120f0202, 0x120f0212, 0x12110202,
    0x12110212, 0x12130202, 0x12140202, 0x12150202, 0x12150212, 0x12170202, 0x12170212, 0x12190202,
    0x121a0202, 0x121b0202, 0x121c0202, 0xffffffff, 0xffffffff, 0xffffffff, 0xffffffff, 0xffffffff,
    0xffffffff, 0xffffffff, 0xffffffff, 0x76e0202, 0x76f0202, 0xffffffff, 0xffffffff, 0xffffffff,
    0xffffffff, 0xffffffff, 0xffffffff, 0xffffffff, 0xffffffff, 0xffffffff, 0xffffffff, 0xffffffff,
    0xffffffff, 0xffffffff, 0xffffffff, 0xffffffff, 0xffffffff, 0xffffffff, 0xffffffff, 0xffffffff,
    0xffffffff, 0xffffffff, 0xffffffff, 0xffffffff, 0x7700202, 0xffffffff, 0xffffffff, 0xffffffff,
    0xffffffff, 0xffffffff, 0xffffffff, 0xffffffff, 0xffffffff, 0xffffffff, 0xffffffff, 0xffffffff,
    0xffffffff, 0xffffffff, 0xffffffff, 0x7710202, 0xffffffff, 0xffffffff, 0xffffffff, 0x7720202,
    0xffffffff, 0x13070202, 0x130b0902, 0x130b0a02, 0x13070502, 0x130b0b02, 0x13070702, 0x130b0802,
    0x130f0802, 0x13130802, 0x13130802, 0x13170802, 0x131b0802, 0x131f0802, 0x13230802, 0x13270802,
    0x132b0802, 0x132f0802, 0x13330802, 0x13370802, 0x133b0802, 0x133f0802, 0x13430802, 0x13470802,
    0x134b0802, 0x134f0802, 0x13530802, 0xffffffff, 0xffffffff, 0xffffffff, 0xffffffff, 0xffffffff,
    0xffffffff, 0x13570802, 0x135b0802, 0x135f0802, 0x13630802, 0x13670802, 0x136b0802, 0x136f0802,
    0x13730802, 0x13770502, 0x13770702, 0x6a00202, 0x6a10202, 0x6a20202, 0x6a30202, 0x6a40202,
    0x6a50202, 0x6a70202, 0x6a60202, 0xffffffff, 0xffffffff, 0xffffffff, 0xffffffff, 0xffffffff,
    0xffffffff, 0xffffffff, 0xffffffff, 0xffffffff, 0xffffffff, 0xffffffff, 0xffffffff, 0xffffffff,
    0xc043802, 0xc223802, 0xc353802, 0xc473802, 0xc593802, 0xc6c3802, 0xc7f3802, 0xc913802,
    0xca33802, 0xcb53802, 0x7730202, 0x7740202, 0x7750202, 0xffffffff, 0xffffffff, 0xffffffff,
    0x130b0c02, 0x130b0d02, 0x130b0e02, 0x130b0f02, 0x13840202, 0x130b1002, 0x13860202, 0x13870202,
    0x13880202, 0x13890202, 0x138a0202, 0x138b0202, 0x138c0202, 0x138d0202, 0x13110802, 0x138f0202,
    0x13900202, 0x13910202, 0x13920202, 0x13930202, 0x13940202, 0x13950202, 0x131d0802, 0x13970202,
    0x13980202, 0x13990202, 0x139a0202, 0x139b0202, 0x139c0202, 0x139d0202, 0x139e0202, 0x139f0202,
    0x13a00202, 0x13a10202, 0x13a20202, 0x13a30202, 0x13a40202, 0x13a50202, 0x13a60202, 0x13a70202,
    0x13350802, 0x13a90202, 0x13aa0202, 0x13ab0202, 0x13ac0202, 0x13ad0202, 0x13ae0202, 0x13af0202,
    0x13b00202, 0x13b10202, 0x13b20202, 0x13b30202, 0x13b40202, 0x13b50202, 0x13b60202, 0x13b70202,
    0x13b80202, 0x135f0822, 0x135f082a, 0x13bb0202, 0x13bc0202, 0x13bd0202, 0x13be0202, 0x13610802,
    0x13c00202, 0x13c10202, 0x13c20202, 0x13c30202, 0x13c40202, 0x13c50202, 0x13c60202, 0x13c70202,
    0x13c80202, 0x13c90202, 0x13ca0202, 0x13cb0202, 0x13cc0202, 0x13cd0202, 0x13ce0202, 0x13cf0202,
    0x13d00202, 0x13d10202, 0x13d20202, 0x13d30202, 0x13d40202, 0x13d50202, 0x13d60202, 0x13d70202,
    0x13d80202, 0x13d90202, 0x13da0202, 0x13db0202, 0x13dc0202, 0x13dd0202, 0x13de0202, 0x13df0202,
    0x13e00202, 0x13e10202, 0x13e20202, 0x13e30202, 0x7760202, 0x13e40202, 0xffffffff, 0xffffffff,
    0xffffffff, 0xffffffff, 0xffffffff, 0xffffffff, 0xffffffff, 0xffffffff, 0xffffffff, 0xffffffff,
    0xffffffff, 0xffffffff, 0xffffffff, 0xffffffff, 0xffffffff, 0xffffffff, 0xffffffff, 0xffffffff,
    0xffffffff, 0xffffffff, 0xffffffff, 0xffffffff, 0xffffffff, 0xffffffff, 0xffffffff, 0xffffffff,
    0xc053902, 0xc233902, 0xc363902, 0xc483902, 0xc5a3902, 0xc6d3902, 0xc803902, 0xc923902,
    0xca43902, 0xcb63902, 0xffffffff, 0xffffffff, 0xffffffff, 0xffffffff, 0xffffffff, 0xffffffff,
    0x7e20202, 0x7e30202, 0x7e40202, 0x7e50202, 0x7e60202, 0x7e70202, 0x7e80202, 0x7e90202,
    0x7ea0202, 0x7eb0202, 0x7ec0202, 0x7ed0202, 0x7ee0202, 0x7ef0202, 0xffffffff, 0x7f00202,
    0x240b0202, 0x1009a02, 0x240f0202, 0x24130202, 0x24150202, 0x24170202, 0x24190202, 0x241b0202,
    0x241f0202, 0x24230202, 0x24270202, 0x242b0202, 0x242d0202, 0x242f0202, 0x24310202, 0x24330202,
    0x24370202, 0x243b0202, 0x24400202, 0x24440202, 0x24460202, 0x24480202, 0x244c0202, 0x244e0202,
    0x24500202, 0x24540202, 0x24580202, 0x245c0202, 0x24600202, 0xffffffff, 0xffffffff, 0xffffffff,
    0x1009f02, 0x100a002, 0x1009402, 0x100a102, 0x100a202, 0x1009502, 0x100a302, 0x100a402,
    0x1009602, 0x1009702, 0x100a502, 0x100a602, 0x1009802, 0x100a702, 0x100a802, 0x1009902,
    0x1008d02, 0x1008e02, 0x1008f02, 0x1009b02, 0x1009c02, 0x1009d02, 0x1009e02, 0x1009002,
    0x1009102, 0x100a902, 0x100aa02, 0xffffffff, 0xffffffff, 0xffffffff, 0xffffffff, 0xffffffff,
    0xffffffff, 0xffffffff, 0xffffffff, 0xffffffff, 0xffffffff, 0xffffffff, 0xffffffff, 0xffffffff,
    0xffffffff, 0xffffffff, 0xffffffff, 0xffffffff, 0xffffffff, 0xffffffff, 0xffffffff, 0xffffffff,
    0xffffffff, 0xffffffff, 0xffffffff, 0xffffffff, 0xffffffff, 0xffffffff, 0xffffffff, 0xffffffff,
    0xffffffff, 0xffffffff, 0xffffffff, 0xffffffff, 0xffffffff, 0xffffffff, 0xffffffff, 0xffffffff,
    0xffffffff, 0xffffffff, 0xffffffff, 0xffffffff, 0xffffffff, 0xffffffff, 0xffffffff, 0xffffffff,
    0xffffffff, 0xffffffff, 0xffffffff, 0xffffffff, 0xffffffff, 0xffffffff, 0xffffffff, 0xffffffff,
    0x246e0202, 0x24740202, 0x24760202, 0x247a0202, 0x247e0202, 0x24800202, 0x24820202, 0x24840202,
    0x248a0202, 0x248e0202, 0x24900202, 0x24920202, 0x24960202, 0x249e0202, 0x24a00202, 0x24a40202,
    0x24a60202, 0x24ae0202, 0x24b00202, 0x24b20202, 0x24b40202, 0x24b60202, 0x24b80202, 0x24ba0202,
    0x24980202, 0x24700202, 0x24720202, 0x24940202, 0x247c0202, 0x24a80202, 0x24aa0202, 0x24ac0202,
    0x249a0202, 0x249c0202, 0x24860202, 0x24880202, 0x24a20202, 0x248c0202, 0x100ac02, 0x100ad02,
    0x100ae02, 0x100af02, 0x100b002, 0x100b102, 0x100b202, 0x100b302, 0x100b402, 0x100b502,
    0x100b602, 0xffffffff, 0xffffffff, 0xffffffff, 0xffffffff, 0xffffffff, 0xffffffff, 0xffffffff,
    0xffffffff, 0xffffffff, 0xffffffff, 0xffffffff, 0xffffffff, 0xffffffff, 0xffffffff, 0xffffffff,
    0xffffffff, 0xffffffff, 0xffffffff, 0xffffffff, 0xffffffff, 0xffffffff, 0xffffffff, 0xffffffff,
    0xffffffff, 0xffffffff, 0xffffffff, 0xffffffff, 0xffffffff, 0xffffffff, 0xffffffff, 0xffffffff,
    0xffffffff, 0xffffffff, 0xffffffff, 0xffffffff, 0xffffffff, 0xffffffff, 0xffffffff, 0xffffffff,
    0xffffffff, 0xffffffff, 0xffffffff, 0xffffffff, 0xffffffff, 0xffffffff, 0xffffffff, 0xffffffff,
    0xffffffff, 0xffffffff, 0xffffffff, 0xffffffff, 0xffffffff, 0xffffffff, 0xffffffff, 0xffffffff,
    0xffffffff, 0xffffffff, 0xffffffff, 0xffffffff, 0xffffffff, 0xffffffff, 0xffffffff, 0xffffffff,
    0xffffffff, 0xffffffff, 0xffffffff, 0xffffffff, 0xffffffff, 0xffffffff, 0xffffffff, 0xffffffff,
    0xffffffff, 0xffffffff, 0xffffffff, 0xffffffff, 0xffffffff, 0xffffffff, 0xffffffff, 0xffffffff,
    0xffffffff, 0xffffffff, 0xffffffff, 0xffffffff, 0xffffffff, 0xffffffff, 0xffffffff, 0xffffffff,
    0xffffffff, 0xffffffff, 0xffffffff, 0xffffffff, 0xffffffff, 0xffffffff, 0xffffffff, 0xffffffff,
    0xffffffff, 0xffffffff, 0xffffffff, 0xffffffff, 0xffffffff, 0xffffffff, 0xffffffff, 0xffffffff,
    0xffffffff, 0xffffffff, 0xffffffff, 0xffffffff, 0xffffffff, 0xffffffff, 0xffffffff, 0xffffffff,
    0xffffffff, 0xffffffff, 0xffffffff, 0xffffffff, 0xffffffff, 0xffffffff, 0xffffffff, 0xffffffff,
    0xffffffff, 0xffffffff, 0xffffffff, 0xffffffff, 0xffffffff, 0xffffffff, 0xffffffff, 0xffffffff,
    0xffffffff, 0xffffffff, 0xffffffff, 0xffffffff, 0xffffffff, 0xffffffff, 0xffffffff, 0xffffffff,
    0xffffffff, 0xffffffff, 0xffffffff, 0xffffffff, 0xffffffff, 0xffffffff, 0xffffffff, 0xffffffff,
    0xffffffff, 0xffffffff, 0xffffffff, 0xffffffff, 0xffffffff, 0xffffffff, 0xffffffff, 0xffffffff,
    0xffffffff, 0xffffffff, 0xffffffff, 0xffffffff, 0xffffffff, 0xffffffff, 0xffffffff, 0xffffffff,
    0xffffffff, 0xffffffff, 0xffffffff, 0xffffffff, 0xffffffff, 0xffffffff, 0xffffffff, 0xffffffff,
    0xffffffff, 0xffffffff, 0xffffffff, 0xffffffff, 0xffffffff, 0xffffffff, 0xffffffff, 0xffffffff,
    0xffffffff, 0xffffffff, 0xffffffff, 0xffffffff, 0xffffffff, 0xffffffff, 0xffffffff, 0xffffffff,
    0xffffffff, 0xffffffff, 0xffffffff, 0xffffffff, 0xffffffff, 0xffffffff, 0xffffffff, 0xffffffff,
    0xffffffff, 0xffffffff, 0xffffffff, 0xffffffff, 0xffffffff, 0xffffffff, 0xffffffff, 0xffffffff,
    0xffffffff, 0xffffffff, 0xffffffff, 0xffffffff, 0xffffffff, 0xffffffff, 0xffffffff, 0xffffffff,
    0xffffffff, 0xffffffff, 0xffffffff, 0xffffffff, 0xffffffff, 0xffffffff, 0xffffffff, 0xffffffff,
    0xffffffff, 0xffffffff, 0xffffffff, 0xffffffff, 0xffffffff, 0xffffffff, 0xffffffff, 0xffffffff,
    0xffffffff, 0xffffffff, 0xffffffff, 0xffffffff, 0xffffffff, 0xffffffff, 0xffffffff, 0xffffffff,
    0xffffffff, 0xffffffff, 0xffffffff, 0xffffffff, 0xffffffff, 0xffffffff, 0xffffffff, 0xffffffff,
    0xffffffff, 0xffffffff, 0xffffffff, 0xffffffff, 0xffffffff, 0xffffffff, 0xffffffff, 0xffffffff,
    0xffffffff, 0xffffffff, 0xffffffff, 0xffffffff, 0xffffffff, 0xffffffff, 0xffffffff, 0xffffffff,
    0xffffffff, 0xffffffff, 0xffffffff, 0xffffffff, 0xffffffff, 0xffffffff, 0xffffffff, 0xffffffff,
    0xffffffff, 0xffffffff, 0xffffffff, 0xffffffff, 0xffffffff, 0xffffffff, 0xffffffff, 0xffffffff,
    0xffffffff, 0xffffffff, 0xffffffff, 0xffffffff, 0xffffffff, 0xffffffff, 0xffffffff, 0xffffffff,
    0xffffffff, 0xffffffff, 0xffffffff, 0xffffffff, 0xffffffff, 0xffffffff, 0xffffffff, 0xffffffff,
    0xffffffff, 0xffffffff, 0xffffffff, 0xffffffff, 0xffffffff, 0xffffffff, 0xffffffff, 0xffffffff,
    0xffffffff, 0xffffffff, 0xffffffff, 0xffffffff, 0xffffffff, 0xffffffff, 0xffffffff, 0xffffffff,
    0xffffffff, 0xffffffff, 0xffffffff, 0xffffffff, 0xffffffff, 0xffffffff, 0xffffffff, 0xffffffff,
    0xffffffff, 0xffffffff, 0xffffffff, 0xffffffff, 0xffffffff, 0xffffffff, 0xffffffff, 0xffffffff,
    0xffffffff, 0xffffffff, 0xffffffff, 0xffffffff, 0xffffffff, 0xffffffff, 0xffffffff, 0xffffffff,
    0xffffffff, 0xffffffff, 0xffffffff, 0xffffffff, 0xffffffff, 0xffffffff, 0xffffffff, 0xffffffff,
    0xffffffff, 0x14040202, 0x14060202, 0x14080202, 0xffffffff, 0x140b0202, 0x140f0202, 0x14130202,
    0x14170202, 0x141b0202, 0x141f0202, 0x14230202, 0x142b0202, 0x14330202, 0x14370202, 0x143b0202,
    0x143f0202, 0x14430202, 0x14470202, 0x144b0202, 0x144f0202, 0x14530202, 0x14570202, 0x145b0202,
    0x145f0202, 0x14630202, 0x14670202, 0x146b0202, 0x146f0202, 0x14730202, 0x14770202, 0x147b0202,
    0x147f0202, 0x14830202, 0x14870202, 0x148b0202, 0x148f0202, 0x14930202, 0x14970202, 0x149b0202,
    0x149f0202, 0x149f0802, 0x14a30202, 0x14a70202, 0x14ab0202, 0x14af0202, 0x14b30202, 0x14b70202,
    0x14bb0202, 0x14bb0802, 0x14bf0202, 0x14c30202, 0x14c30802, 0x14c70202, 0x14cb0202, 0x14cf0202,
    0x14d30202, 0x14d70202, 0xffffffff, 0xffffffff, 0x1000600, 0x7de0202, 0x14da0202, 0x14dc0202,
    0x14de0202, 0x14e00202, 0x14e20202, 0x14e40202, 0x14e60202, 0x14ec0202, 0x14ee0202, 0x14f00202,
    0x14f20202, 0x14f40202, 0x14f60202, 0x14f80202, 0x14fa0202, 0x14fc0202, 0xffffffff, 0xffffffff,
    0x7dd0202, 0x1000a00, 0x1000c00, 0x1000e00, 0x1001000, 0xffffffff, 0xffffffff, 0xffffffff,
    0x14530802, 0x14570802, 0x145b0802, 0x146f0802, 0x14830802, 0x14870802, 0x14a70802, 0x14b70802,
    0x14270202, 0x142f0202, 0x14e80202, 0x14ea0202, 0x7df0202, 0x7e00202, 0xc063a02, 0xc243a02,
    0xc373a02, 0xc493a02, 0xc5b3a02, 0xc6e3a02, 0xc813a02, 0xc933a02, 0xca53a02, 0xcb73a02,
    0x7e10202, 0xffffffff, 0xffffffff, 0xffffffff, 0xffffffff, 0xffffffff, 0xffffffff, 0xffffffff,
    0xffffffff, 0xffffffff, 0xffffffff, 0xffffffff, 0xffffffff, 0xffffffff, 0xffffffff, 0xffffffff,
    0xffffffff, 0x1000300, 0x15020202, 0x15030202, 0xffffffff, 0x15040202, 0x15050202, 0x15060202,
    0x15070202, 0x15080202, 0x15090202, 0x150a0202, 0x150b0202, 0xffffffff, 0xffffffff, 0x150c0202,
    0x150d0202, 0xffffffff, 0xffffffff, 0x150e0202, 0x150f0202, 0x15100202, 0x15110202, 0x15120202,
    0x15130202, 0x15140202, 0x15150202, 0x15160202, 0x15170202, 0x15180202, 0x15190202, 0x151a0202,
    0x151b0202, 0x151c0202, 0x151d0202, 0x151e0202, 0x151f0202, 0x15200202, 0x15210202, 0x15220202,
    0x15230202, 0xffffffff, 0x15240202, 0x15250202, 0x15260202, 0x15270202, 0x15280202, 0x15290202,
    0x152a0202, 0xffffffff, 0x152b0202, 0xffffffff, 0xffffffff, 0xffffffff, 0x152c0202, 0x152d0202,
    0x152e0202, 0x152f0202, 0xffffffff, 0xffffffff, 0x1000400, 0xffffffff, 0x15300202, 0x15310202,
    0x15320202, 0x1000500, 0x1000600, 0x1000700, 0x1000800, 0xffffffff, 0xffffffff, 0x15330202,
    0x15340202, 0xffffffff, 0xffffffff, 0x15350202, 0x15360202, 0x1000900, 0xffffffff, 0xffffffff,
    0xffffffff, 0xffffffff, 0xffffffff, 0xffffffff, 0xffffffff, 0xffffffff, 0xffffffff, 0x15370202,
    0xffffffff, 0xffffffff, 0xffffffff, 0xffffffff, 0x151c0602, 0x151d0602, 0xffffffff, 0x15290602,
    0x153b0202, 0x153c0202, 0x1000a00, 0x1000b00, 0xffffffff, 0xffffffff, 0xc073b02, 0xc253b02,
    0xc383b02, 0xc4a3b02, 0xc5c3b02, 0xc6f3b02, 0xc823b02, 0xc943b02, 0xca63b02, 0xcb83b02,
    0x153d0202, 0x153e0202, 0x153f0202, 0x15400202, 0xc253c02, 0xc383c02, 0xc4a3c02, 0xc5c3c02,
    0xc023c02, 0xcd23c02, 0x15410202, 0xffffffff, 0xffffffff, 0xffffffff, 0xffffffff, 0xffffffff,
    0xffffffff, 0xffffffff, 0x1000a00, 0xffffffff, 0xffffffff, 0x16180202, 0x161c0202, 0x162c0202,
    0x16300202, 0x160c0202, 0x16100202, 0xffffffff, 0xffffffff, 0xffffffff, 0xffffffff, 0x16340202,
    0x16200202, 0xffffffff, 0xffffffff, 0x16140202, 0x16240202, 0x16400202, 0x16440202, 0x16480202,
    0x164c0202, 0x16500202, 0x16540202, 0x16580202, 0x165c0202, 0x16600202, 0x16640202, 0x16680202,
    0x166c0202, 0x16700202, 0x16740202, 0x16780202, 0x167c0202, 0x16800202, 0x16840202, 0x16880202,
    0x168c0202, 0xffffffff, 0x16900202, 0x16940202, 0x16980202, 0x169c0202, 0x16a00202, 0x16a40202,
    0x16a80202, 0xffffffff, 0x16ac0202, 0x16ac0412, 0xffffffff, 0x16b00202, 0x16380412, 0xffffffff,
    0x16380202, 0x163c0202, 0xffffffff, 0xffffffff, 0x1000400, 0xffffffff, 0x16c00202, 0x16c40202,
    0x16c80202, 0x16cc0202, 0x16d00202, 0xffffffff, 0xffffffff, 0xffffffff, 0xffffffff, 0x16d40202,
    0x16d80202, 0xffffffff, 0xffffffff, 0x16dc0202, 0x16e00202, 0x1000300, 0xffffffff, 0xffffffff,
    0xffffffff, 0xffffffff, 0xffffffff, 0xffffffff, 0xffffffff, 0xffffffff, 0xffffffff, 0xffffffff,
    0xffffffff, 0x16440412, 0x16480412, 0x165c0412, 0x16b40202, 0xffffffff, 0x16940412, 0xffffffff,
    0xffffffff, 0xffffffff, 0xffffffff, 0xffffffff, 0xffffffff, 0xffffffff, 0xc083d02, 0xc263d02,
    0xc393d02, 0xc4b3d02, 0xc5d3d02, 0xc703d02, 0xc833d02, 0xc953d02, 0xca73d02, 0xcb93d02,
    0x1000e00, 0x1000600, 0x16280202, 0x16080202, 0x16040202, 0xffffffff, 0xffffffff, 0xffffffff,
    0xffffffff, 0xffffffff, 0xffffffff, 0xffffffff, 0xffffffff, 0xffffffff, 0xffffffff, 0xffffffff,
    0xffffffff, 0x17c20202, 0x17c40202, 0x17c80202, 0xffffffff, 0x17080202, 0x170c0202, 0x17100202,
    0x17140202, 0x17180202, 0x171c0202, 0x17200202, 0xffffffff, 0x17240202, 0xffffffff, 0x17280202,
    0x172c0202, 0x17300202, 0xffffffff, 0x17340202, 0x17380202, 0x173c0202, 0x17400202, 0x17440202,
    0x17480202, 0x174c0202, 0x17500202, 0x17540202, 0x17580202, 0x175c0202, 0x17600202, 0x17640202,
    0x17680202, 0x176c0202, 0x17700202, 0x17740202, 0x17780202, 0x177c0202, 0x17800202, 0x17840202,
    0x17880202, 0xffffffff, 0x178c0202, 0x17900202, 0x17940202, 0x17980202, 0x179c0202, 0x17a00202,
    0x17a40202, 0xffffffff, 0x17a80202, 0x17c00202, 0xffffffff, 0x17ac0202, 0x17b00202, 0x17b40202,
    0x17b80202, 0x17bc0202, 0xffffffff, 0xffffffff, 0x1000b00, 0x1000300, 0x17cc0202, 0x17cf0202,
    0x17d20202, 0x17d50202, 0x17d90202, 0x17dc0202, 0x17dc0502, 0x17e20202, 0xffffffff, 0x17e50202,
    0x17e80202, 0x17eb0202, 0xffffffff, 0x17ee0202, 0x17f10202, 0x17f40202, 0xffffffff, 0xffffffff,
    0x17040202, 0xffffffff, 0xffffffff, 0xffffffff, 0xffffffff, 0xffffffff, 0xffffffff, 0xffffffff,
    0xffffffff, 0xffffffff, 0xffffffff, 0xffffffff, 0xffffffff, 0xffffffff, 0xffffffff, 0xffffffff,
    0x17200502, 0xffffffff, 0xffffffff, 0xffffffff, 0xffffffff, 0xffffffff, 0xc093e02, 0xc273e02,
    0xc3a3e02, 0xc4c3e02, 0xc5e3e02, 0xc713e02, 0xc843e02, 0xc963e02, 0xca83e02, 0xcba3e02,
    0xffffffff, 0xffffffff, 0xffffffff, 0xffffffff, 0xffffffff, 0xffffffff, 0xffffffff, 0xffffffff,
    0xffffffff, 0xffffffff, 0xffffffff, 0xffffffff, 0xffffffff, 0xffffffff, 0xffffffff, 0xffffffff,
    0xffffffff, 0x1000300, 0x18020202, 0x18030202, 0xffffffff, 0x18040202, 0x18050202, 0x18060202,
    0x18070202, 0x18080202, 0x18090202, 0x180a0202, 0x180b0202, 0xffffffff, 0xffffffff, 0x180c0202,
    0x180d0202, 0xffffffff, 0xffffffff, 0x180e0202, 0x180f0202, 0x18100202, 0x18110202, 0x18120202,
    0x18130202, 0x18140202, 0x18150202, 0x18160202, 0x18170202, 0x18180202, 0x18190202, 0x181a0202,
    0x181b0202, 0x181c0202, 0x181d0202, 0x181e0202, 0x181f0202, 0x18200202, 0x18210202, 0x18220202,
    0x18230202, 0xffffffff, 0x18240202, 0x18250202, 0x18260202, 0x18270202, 0x18280202, 0x18290202,
    0x182a0202, 0xffffffff, 0x182b0202, 0x182c0202, 0xffffffff, 0xffffffff, 0x182d0202, 0x182e0202,
    0x182f0202, 0x18300202, 0xffffffff, 0xffffffff, 0x1000400, 0x18310202, 0x18320202, 0x1000500,
    0x18330202, 0x1000600, 0x1000700, 0x1000800, 0xffffffff, 0xffffffff, 0xffffffff, 0x18340202,
    0x18350202, 0xffffffff, 0xffffffff, 0x18360202, 0x18370202, 0x1000900, 0xffffffff, 0xffffffff,
    0xffffffff, 0xffffffff, 0xffffffff, 0xffffffff, 0xffffffff, 0xffffffff, 0xffffffff, 0x18380202,
    0xffffffff, 0xffffffff, 0xffffffff, 0xffffffff, 0x181c0602, 0x181d0602, 0xffffffff, 0x18290602,
    0x183c0202, 0x183d0202, 0xffffffff, 0xffffffff, 0xffffffff, 0xffffffff, 0xc0a3f02, 0xc283f02,
    0xc3b3f02, 0xc4d3f02, 0xc5f3f02, 0xc723f02, 0xc853f02, 0xc973f02, 0xca93f02, 0xcbb3f02,
    0x183e0202, 0xffffffff, 0xffffffff, 0xffffffff, 0xffffffff, 0xffffffff, 0xffffffff, 0xffffffff,
    0xffffffff, 0xffffffff, 0xffffffff, 0xffffffff, 0xffffffff, 0xffffffff, 0xffffffff, 0xffffffff,
    0xffffffff, 0xffffffff, 0x190a0202, 0x190c0202, 0xffffffff, 0x190e0202, 0x19100202, 0x19120202,
    0x19140202, 0x19160202, 0x19180202, 0xffffffff, 0xffffffff, 0xffffffff, 0x191a0202, 0x191c0202,
    0x191e0202, 0xffffffff, 0x19200202, 0x19220202, 0x19240202, 0x19280202, 0xffffffff, 0xffffffff,
    0xffffffff, 0x192c0202, 0x19300202, 0xffffffff, 0x19700202, 0xffffffff, 0x19340202, 0x19380202,
    0xffffffff, 0xffffffff, 0xffffffff, 0x193c0202, 0x19400202, 0xffffffff, 0xffffffff, 0xffffffff,
    0x19440202, 0x196c0202, 0x19480202, 0xffffffff, 0xffffffff, 0xffffffff, 0x194c0202, 0x19500202,
    0x19540202, 0x19680202, 0x19580202, 0x19640202, 0x19600202, 0x195c0202, 0xffffffff, 0x19780202,
    0x19740202, 0x197e0202, 0xffffffff, 0xffffffff, 0xffffffff, 0xffffffff, 0x19820202, 0x19840202,
    0x19860202, 0x19880202, 0x198a0202, 0xffffffff, 0xffffffff, 0xffffffff, 0x198c0202, 0x198e0202,
    0x19900202, 0xffffffff, 0x19920202, 0x19940202, 0x19960202, 0x1000200, 0xffffffff, 0xffffffff,
    0xffffffff, 0xffffffff, 0xffffffff, 0xffffffff, 0xffffffff, 0xffffffff, 0xffffffff, 0x19020202,
    0xffffffff, 0xffffffff, 0xffffffff, 0xffffffff, 0xffffffff, 0xffffffff, 0xffffffff, 0xffffffff,
    0xffffffff, 0xffffffff, 0xffffffff, 0xffffffff, 0xffffffff, 0xffffffff, 0xffffffff, 0xc294002,
    0xc3c4002, 0xc4e4002, 0xc604002, 0xc734002, 0xc864002, 0xc984002, 0xcaa4002, 0xcbc4002,
    0xcc74002, 0xcd84002, 0xcdc4002, 0xffffffff, 0xffffffff, 0xffffffff, 0xffffffff, 0xffffffff,
    0xffffffff, 0xffffffff, 0xffffffff, 0xffffffff, 0xffffffff, 0xffffffff, 0xffffffff, 0xffffffff,
    0xffffffff, 0x1a040202, 0x1a070202, 0x1a0a0202, 0xffffffff, 0x1a0d0202, 0x1a100202, 0x1a130202,
    0x1a160202, 0x1a190202, 0x1a1c0202, 0x1a1f0202, 0x1a250202, 0xffffffff, 0x1a2b0202, 0x1a2e0202,
    0x1a310202, 0xffffffff, 0x1a340202, 0x1a370202, 0x1a3a0202, 0x1a3d0202, 0x1a400202, 0x1a430202,
    0x1a460202, 0x1a490202, 0x1a4c0202, 0x1a4f0202, 0x1a520202, 0x1a550202, 0x1a580202, 0x1a5b0202,
    0x1a5e0202, 0x1a610202, 0x1a640202, 0x1a670202, 0x1a6a0202, 0x1a6d0202, 0x1a700202, 0x1a730202,
    0x1a760202, 0xffffffff, 0x1a790202, 0x1a7c0202, 0x1a7f0202, 0x1a820202, 0x1a850202, 0x1a880202,
    0x1a8b0202, 0x1a8e0202, 0x1a910202, 0x1a940202, 0xffffffff, 0x1a970202, 0x1a9a0202, 0x1a9d0202,
    0x1aa00202, 0x1aa30202, 0xffffffff, 0xffffffff, 0xffffffff, 0xffffffff, 0x1aa60202, 0x1aa90202,
    0x1aac0202, 0x1aaf0202, 0x1ab20202, 0x1ab50202, 0x1ab80202, 0xffffffff, 0x1abb0202, 0x1abe0202,
    0x1ac10202, 0xffffffff, 0x1ac40202, 0x1ac70202, 0x1aca0202, 0x1acd0202, 0xffffffff, 0xffffffff,
    0xffffffff, 0xffffffff, 0xffffffff, 0xffffffff, 0xffffffff, 0x1000d00, 0x1000e00, 0xffffffff,
    0xffffffff, 0xffffffff, 0xffffffff, 0xffffffff, 0xffffffff, 0xffffffff, 0xffffffff, 0xffffffff,
    0x1a220202, 0x1a280202, 0xffffffff, 0xffffffff, 0xffffffff, 0xffffffff, 0xc0b4102, 0xc2a4102,
    0xc3d4102, 0xc4f4102, 0xc614102, 0xc744102, 0xc874102, 0xc994102, 0xcab4102, 0xcbd4102,
    0xffffffff, 0xffffffff, 0xffffffff, 0xffffffff, 0xffffffff, 0xffffffff, 0xffffffff, 0xffffffff,
    0xffffffff, 0xffffffff, 0xffffffff, 0xffffffff, 0xffffffff, 0xffffffff, 0xffffffff, 0xffffffff,
    0xffffffff, 0xffffffff, 0x1b040202, 0x1b070202, 0xffffffff, 0x1b0a0202, 0x1b0d0202, 0x1b100202,
    0x1b130202, 0x1b160202, 0x1b190202, 0x1b1c0202, 0x1b1f0202, 0xffffffff, 0x1b220202, 0x1b250202,
    0x1b280202, 0xffffffff, 0x1b2b0202, 0x1b2e0202, 0x1b310202, 0x1b340202, 0x1b370202, 0x1b3a0202,
    0x1b3d0202, 0x1b400202, 0x1b430202, 0x1b460202, 0x1b490202, 0x1b4c0202, 0x1b4f0202, 0x1b520202,
    0x1b550202, 0x1b580202, 0x1b5b0202, 0x1b5e0202, 0x1b610202, 0x1b640202, 0x1b670202, 0x1b6a0202,
    0x1b6d0202, 0xffffffff, 0x1b700202, 0x1b730202, 0x1b760202, 0x1b790202, 0x1b7c0202, 0x1b7f0202,
    0x1b820202, 0x1b9a0202, 0x1b850202, 0x1b9d0202, 0xffffffff, 0x1b8b0202, 0x1b8e0202, 0x1b910202,
    0x1b940202, 0x1b970202, 0xffffffff, 0xffffffff, 0xffffffff, 0xffffffff, 0x1ba30202, 0x1ba60202,
    0x1ba90202, 0x1bac0202, 0x1baf0202, 0x1bb20202, 0x1bb50202, 0xffffffff, 0x1bb80202, 0x1bbb0202,
    0x1bbe0202, 0xffffffff, 0x1bc10202, 0x1bc40202, 0x1bc70202, 0x1bca0202, 0xffffffff, 0xffffffff,
    0xffffffff, 0xffffffff, 0xffffffff, 0xffffffff, 0xffffffff, 0x1000400, 0x1000500, 0xffffffff,
    0xffffffff, 0xffffffff, 0xffffffff, 0xffffffff, 0xffffffff, 0xffffffff, 0x1ba00202, 0xffffffff,
    0x1b820402, 0x1b880202, 0xffffffff, 0xffffffff, 0xffffffff, 0xffffffff, 0xc0c4202, 0xc2b4202,
    0xc3e4202, 0xc504202, 0xc624202, 0xc754202, 0xc884202, 0xc9a4202, 0xcac4202, 0xcbe4202,
    0xffffffff, 0xffffffff, 0xffffffff, 0xffffffff, 0xffffffff, 0xffffffff, 0xffffffff, 0xffffffff,
    0xffffffff, 0xffffffff, 0xffffffff, 0xffffffff, 0xffffffff, 0xffffffff, 0xffffffff, 0xffffffff,
    0xffffffff, 0xffffffff, 0x1c020202, 0x1c030202, 0xffffffff, 0x1c040202, 0x1c050202, 0x1c060202,
    0x1c070202, 0x1c080202, 0x1c090202, 0x1c0a0202, 0x1c0b0202, 0xffffffff, 0x1c0c0202, 0x1c0d0202,
    0x1c0e0202, 0xffffffff, 0x1c0f0202, 0x1c100202, 0x1c110202, 0x1c120202, 0x1c130202, 0x1c140202,
    0x1c150202, 0x1c160202, 0x1c170202, 0x1c180202, 0x1c190202, 0x1c1a0202, 0x1c1b0202, 0x1c1c0202,
    0x1c1d0202, 0x1c1e0202, 0x1c1f0202, 0x1c200202, 0x1c210202, 0x1c220202, 0x1c230202, 0x1c240202,
    0x1c250202, 0xffffffff, 0x1c260202, 0x1c270202, 0x1c280202, 0x1c290202, 0x1c2a0202, 0x1c2b0202,
    0x1c2c0202, 0x1c2d0202, 0x1c2e0202, 0x1c2f0202, 0x1c300202, 0x1c310202, 0x1c320202, 0x1c330202,
    0x1c340202, 0x1c350202, 0xffffffff, 0xffffffff, 0xffffffff, 0xffffffff, 0x1c360202, 0x1c370202,
    0x1c380202, 0x1000300, 0x1000400, 0x1000500, 0xffffffff, 0xffffffff, 0x1c390202, 0x1c3a0202,
    0x1c3b0202, 0xffffffff, 0x1c3c0202, 0x1c3d0202, 0x1c3e0202, 0x1000600, 0xffffffff, 0xffffffff,
    0xffffffff, 0xffffffff, 0xffffffff, 0xffffffff, 0xffffffff, 0xffffffff, 0xffffffff, 0x1c3f0202,
    0xffffffff, 0xffffffff, 0xffffffff, 0xffffffff, 0xffffffff, 0xffffffff, 0xffffffff, 0xffffffff,
    0x1c400202, 0x1c410202, 0xffffffff, 0xffffffff, 0xffffffff, 0xffffffff, 0xc0d4302, 0xc2c4302,
    0xc3f4302, 0xc514302, 0xc634302, 0xc764302, 0xc894302, 0xc9b4302, 0xcad4302, 0xcbf4302,
    0xffffffff, 0xffffffff, 0xffffffff, 0xffffffff, 0xffffffff, 0xffffffff, 0xffffffff, 0xffffffff,
    0xffffffff, 0xffffffff, 0xffffffff, 0xffffffff, 0xffffffff, 0xffffffff, 0xffffffff, 0xffffffff,
    0xffffffff, 0xffffffff, 0xffffffff, 0xffffffff, 0xffffffff, 0xffffffff, 0xffffffff, 0xffffffff,
    0xffffffff, 0xffffffff, 0xffffffff, 0xffffffff, 0xffffffff, 0xffffffff, 0xffffffff, 0xffffffff,
    0xffffffff, 0xffffffff, 0xffffffff, 0xffffffff, 0xffffffff, 0xffffffff, 0xffffffff, 0xffffffff,
    0xffffffff, 0xffffffff, 0xffffffff, 0xffffffff, 0xffffffff, 0xffffffff, 0xffffffff, 0xffffffff,
    0xffffffff, 0xffffffff, 0xffffffff, 0xffffffff, 0xffffffff, 0xffffffff, 0xffffffff, 0xffffffff,
    0xffffffff, 0xffffffff, 0xffffffff, 0xffffffff, 0xffffffff, 0xffffffff, 0xffffffff, 0xffffffff,
    0xffffffff, 0xffffffff, 0xffffffff, 0xffffffff, 0xffffffff, 0xffffffff, 0xffffffff, 0xffffffff,
    0xffffffff, 0xffffffff, 0xffffffff, 0xffffffff, 0xffffffff, 0xffffffff, 0xffffffff, 0xffffffff,
    0xffffffff, 0xffffffff, 0xffffffff, 0xffffffff, 0xffffffff, 0xffffffff, 0xffffffff, 0xffffffff,
    0xffffffff, 0xffffffff, 0xffffffff, 0xffffffff, 0xffffffff, 0xffffffff, 0xffffffff, 0xffffffff,
    0xffffffff, 0xffffffff, 0xffffffff, 0xffffffff, 0xffffffff, 0xffffffff, 0xffffffff, 0xffffffff,
    0xffffffff, 0xffffffff, 0xffffffff, 0xffffffff, 0xffffffff, 0xffffffff, 0xffffffff, 0xffffffff,
    0xffffffff, 0xffffffff, 0xffffffff, 0xffffffff, 0xffffffff, 0xffffffff, 0xffffffff, 0xffffffff,
    0xffffffff, 0xffffffff, 0xffffffff, 0xffffffff, 0xffffffff, 0xffffffff, 0xffffffff, 0xffffffff,
    0xffffffff, 0xffffffff, 0xffffffff, 0xffffffff, 0xffffffff, 0xffffffff, 0xffffffff, 0xffffffff,
    0xffffffff, 0xffffffff, 0xffffffff, 0xffffffff, 0xffffffff, 0xffffffff, 0xffffffff, 0xffffffff,
    0xffffffff, 0x1e070302, 0x1e0d0302, 0x1e130302, 0x1e190302, 0x1e1f0302, 0x1e250302, 0x1e2b0302,
    0x1e310302, 0x1e370302, 0x1e3d0302, 0x1e430302, 0x1e490302, 0x1e4f0302, 0x1e550302, 0x1e5b0302,
    0x1e610302, 0x1e670302, 0x1e6d0302, 0x1e730302, 0x1e790302, 0x1e7f0302, 0x1e850302, 0x1e8b0302,
    0x1e910302, 0x1e970302, 0x1e9d0302, 0x1ea30302, 0x1ea90302, 0x1eaf0302, 0x1eb50302, 0x1ebb0302,
    0x1ec10302, 0x1ec70302, 0x1ecd0302, 0x1ed30302, 0x1ed90302, 0x1edf0302, 0x1ee50302, 0x1eeb0302,
    0x1ef10302, 0x1ef70302, 0x1efd0302, 0x1f050302, 0x1f0b0302, 0x1f110302, 0x1f170302, 0x1f1d0302,
    0x1f1e0302, 0x1f1f0302, 0x1f200302, 0x1f210302, 0x1f220302, 0x1f230302, 0x1f240302, 0x1f250302,
    0x1f260302, 0x1f270302, 0x1f280302, 0xffffffff, 0xffffffff, 0xffffffff, 0xffffffff, 0xaf90202,
    0x1e020302, 0x1e030302, 0x1e040302, 0x1e050302, 0x1e060302, 0x1f290302, 0x1f2a0302, 0x1000200,
    0x1000300, 0x1000400, 0x1000500, 0x1000600, 0x1000000, 0x1000700, 0x1f2b0302, 0x1f2c0302,
    0xc0e4402, 0xc2d4402, 0xc404402, 0xc524402, 0xc644402, 0xc774402, 0xc8a4402, 0xc9c4402,
    0xcae4402, 0xcc04402, 0x1f2d0302, 0x1f2e0302, 0xffffffff, 0xffffffff, 0xffffffff, 0xffffffff,
    0xffffffff, 0xffffffff, 0xffffffff, 0xffffffff, 0xffffffff, 0xffffffff, 0xffffffff, 0xffffffff,
    0xffffffff, 0xffffffff, 0xffffffff, 0xffffffff, 0xffffffff, 0xffffffff, 0xffffffff, 0xffffffff,
    0xffffffff, 0xffffffff, 0xffffffff, 0xffffffff, 0xffffffff, 0xffffffff, 0xffffffff, 0xffffffff,
    0xffffffff, 0xffffffff, 0xffffffff, 0xffffffff, 0xffffffff, 0xffffffff, 0xffffffff, 0xffffffff,
    0xffffffff, 0x1f020202, 0x1f030202, 0xffffffff, 0x1f040202, 0xffffffff, 0xffffffff, 0x1f050202,
    0x1f060202, 0xffffffff, 0x1f070202, 0xffffffff, 0xffffffff, 0x1f080202, 0xffffffff, 0xffffffff,
    0xffffffff, 0xffffffff, 0xffffffff, 0xffffffff, 0x1f090202, 0x1f0a0202, 0x1f0b0202, 0x1f0c0202,
    0xffffffff, 0x1f0d0202, 0x1f0e0202, 0x1f0f0202, 0x1f100202, 0x1f110202, 0x1f120202, 0x1f130202,
    0xffffffff, 0x1f140202, 0x1f150202, 0x1f160202, 0xffffffff, 0x1f170202, 0xffffffff, 0x1f180202,
    0xffffffff, 0xffffffff, 0x1f190202, 0x1f1a0202, 0xffffffff, 0x1f1b0202, 0x1f1c0202, 0x1f1d0202,
    0x1f1e0202, 0x1000300, 0x1f1f0202, 0x1f200202, 0x1000400, 0x1000500, 0x1000600, 0x1000700,
    0x1000800, 0x1000900, 0xffffffff, 0x1000a00, 0x1000b00, 0x1f210202, 0xffffffff, 0xffffffff,
    0x1f220202, 0x1f230202, 0x1f240202, 0x1f250202, 0x1f260202, 0xffffffff, 0x1f270202, 0xffffffff,
    0x1000c00, 0x1000d00, 0x1000e00, 0x1000f00, 0x1001000, 0x1001100, 0xffffffff, 0xffffffff,
    0xc0f4502, 0xc2e4502, 0xc414502, 0xc534502, 0xc654502, 0xc784502, 0xc8b4502, 0xc9d4502,
    0xcaf4502, 0xcc14502, 0xffffffff, 0xffffffff, 0x1f280202, 0x1f290202, 0xffffffff, 0xffffffff,
    0xffffffff, 0xffffffff, 0xffffffff, 0xffffffff, 0xffffffff, 0xffffffff, 0xffffffff, 0xffffffff,
    0xffffffff, 0xffffffff, 0xffffffff, 0xffffffff, 0xffffffff, 0xffffffff, 0xffffffff, 0xffffffff,
    0xffffffff, 0xffffffff, 0xffffffff, 0xffffffff, 0xffffffff, 0xffffffff, 0xffffffff, 0xffffffff,
    0xffffffff, 0xffffffff, 0xffffffff, 0xffffffff, 0xffffffff, 0xffffffff, 0xffffffff, 0xffffffff,
    0xffffffff, 0xffffffff, 0xffffffff, 0xffffffff, 0xffffffff, 0xffffffff, 0xffffffff, 0xffffffff,
    0xffffffff, 0xffffffff, 0xffffffff, 0xffffffff, 0xffffffff, 0xffffffff, 0xffffffff, 0xffffffff,
    0xffffffff, 0xffffffff, 0xffffffff, 0xffffffff, 0xffffffff, 0xffffffff, 0xffffffff, 0xffffffff,
    0xffffffff, 0xffffffff, 0xffffffff, 0xffffffff, 0xffffffff, 0xffffffff, 0xffffffff, 0xffffffff,
    0xffffffff, 0xffffffff, 0xffffffff, 0xffffffff, 0xffffffff, 0xffffffff, 0xffffffff, 0xffffffff,
    0xffffffff, 0xffffffff, 0xffffffff, 0xffffffff, 0xffffffff, 0xffffffff, 0xffffffff, 0xffffffff,
    0xffffffff, 0xffffffff, 0xffffffff, 0xffffffff, 0xffffffff, 0xffffffff, 0xffffffff, 0xffffffff,
    0xffffffff, 0xffffffff, 0xffffffff, 0xffffffff, 0xffffffff, 0xffffffff, 0xffffffff, 0xffffffff,
    0xffffffff, 0xffffffff, 0xffffffff, 0xffffffff, 0xffffffff, 0xffffffff, 0xffffffff, 0xffffffff,
    0xffffffff, 0xffffffff, 0xffffffff, 0xffffffff, 0xffffffff, 0xffffffff, 0xffffffff, 0xffffffff,
    0xffffffff, 0xffffffff, 0xffffffff, 0xffffffff, 0xffffffff, 0xffffffff, 0xffffffff, 0xffffffff,
    0xffffffff, 0xffffffff, 0xffffffff, 0xffffffff, 0xffffffff, 0xffffffff, 0xffffffff, 0xffffffff,
    0xffffffff, 0xffffffff, 0xffffffff, 0xffffffff, 0xffffffff, 0xffffffff, 0xffffffff, 0xffffffff,
    0xffffffff, 0xffffffff, 0xffffffff, 0xffffffff, 0xffffffff, 0xffffffff, 0xffffffff, 0xffffffff,
    0xffffffff, 0xffffffff, 0xffffffff, 0xffffffff, 0xffffffff, 0xffffffff, 0xffffffff, 0xffffffff,
    0xffffffff, 0xffffffff, 0xffffffff, 0xffffffff, 0xffffffff, 0xffffffff, 0xffffffff, 0xffffffff,
    0xffffffff, 0xffffffff, 0xffffffff, 0xffffffff, 0xffffffff, 0xffffffff, 0xffffffff, 0xffffffff,
    0xffffffff, 0xffffffff, 0xffffffff, 0xffffffff, 0xffffffff, 0xffffffff, 0xffffffff, 0xffffffff,
    0xffffffff, 0xffffffff, 0xffffffff, 0xffffffff, 0xffffffff, 0xffffffff, 0xffffffff, 0xffffffff,
    0xffffffff, 0xffffffff, 0xffffffff, 0xffffffff, 0xffffffff, 0xffffffff, 0xffffffff, 0xffffffff,
    0xffffffff, 0xffffffff, 0xffffffff, 0xffffffff, 0xffffffff, 0xffffffff, 0xffffffff, 0xffffffff,
    0xffffffff, 0xffffffff, 0xffffffff, 0xffffffff, 0xffffffff, 0xffffffff, 0xffffffff, 0xffffffff,
    0xffffffff, 0xffffffff, 0xffffffff, 0xffffffff, 0xffffffff, 0xffffffff, 0xffffffff, 0xffffffff,
    0xffffffff, 0xffffffff, 0xffffffff, 0xffffffff, 0xffffffff, 0xffffffff, 0xffffffff, 0xffffffff,
    0xffffffff, 0xffffffff, 0xffffffff, 0xffffffff, 0xffffffff, 0xffffffff, 0xffffffff, 0xffffffff,
    0xffffffff, 0xffffffff, 0xffffffff, 0xffffffff, 0xffffffff, 0xffffffff, 0xffffffff, 0xffffffff,
    0xffffffff, 0xffffffff, 0xffffffff, 0xffffffff, 0xffffffff, 0xffffffff, 0xffffffff, 0xffffffff,
    0xffffffff, 0xffffffff, 0xffffffff, 0xffffffff, 0xffffffff, 0xffffffff, 0xffffffff, 0xffffffff,
    0xffffffff, 0xffffffff, 0xffffffff, 0xffffffff, 0xffffffff, 0xffffffff, 0xffffffff, 0xffffffff,
    0xffffffff, 0xffffffff, 0xffffffff, 0xffffffff, 0xffffffff, 0xffffffff, 0xffffffff, 0xffffffff,
    0xffffffff, 0xffffffff, 0xffffffff, 0xffffffff, 0xffffffff, 0xffffffff, 0xffffffff, 0xffffffff,
    0xffffffff, 0xffffffff, 0xffffffff, 0xffffffff, 0xffffffff, 0xffffffff, 0xffffffff, 0xffffffff,
    0xffffffff, 0xffffffff, 0xffffffff, 0xffffffff, 0xffffffff, 0xffffffff, 0xffffffff, 0xffffffff,
    0xffffffff, 0xffffffff, 0xffffffff, 0xffffffff, 0xffffffff, 0xffffffff, 0xffffffff, 0xffffffff,
    0xffffffff, 0xffffffff, 0xffffffff, 0xffffffff, 0xffffffff, 0xffffffff, 0xffffffff, 0xffffffff,
    0xffffffff, 0xffffffff, 0xffffffff, 0xffffffff, 0xffffffff, 0xffffffff, 0xffffffff, 0xffffffff,
    0xffffffff, 0xffffffff, 0xffffffff, 0xffffffff, 0xffffffff, 0xffffffff, 0xffffffff, 0xffffffff,
    0xffffffff, 0xffffffff, 0xffffffff, 0xffffffff, 0xffffffff, 0xffffffff, 0xffffffff, 0xffffffff,
    0xffffffff, 0xffffffff, 0xffffffff, 0xffffffff, 0xffffffff, 0xffffffff, 0xffffffff, 0xffffffff,
    0xffffffff, 0xffffffff, 0xffffffff, 0xffffffff, 0xffffffff, 0xffffffff, 0xffffffff, 0xffffffff,
    0xffffffff, 0xffffffff, 0xffffffff, 0xffffffff, 0xffffffff, 0xffffffff, 0xffffffff, 0xffffffff,
    0xffffffff, 0xffffffff, 0xffffffff, 0xffffffff, 0xffffffff, 0xffffffff, 0xffffffff, 0xffffffff,
    0xffffffff, 0xffffffff, 0xffffffff, 0xffffffff, 0xffffffff, 0xffffffff, 0xffffffff, 0xffffffff,
    0xffffffff, 0xffffffff, 0xffffffff, 0xffffffff, 0xffffffff, 0xffffffff, 0xffffffff, 0xffffffff,
    0xffffffff, 0xffffffff, 0xffffffff, 0xffffffff, 0xffffffff, 0xffffffff, 0xffffffff, 0xffffffff,
    0xffffffff, 0xffffffff, 0xffffffff, 0xffffffff, 0xffffffff, 0xffffffff, 0xffffffff, 0xffffffff,
    0xffffffff, 0xffffffff, 0xffffffff, 0xffffffff, 0xffffffff, 0xffffffff, 0xffffffff, 0xffffffff,
    0xffffffff, 0xffffffff, 0xffffffff, 0xffffffff, 0xffffffff, 0xffffffff, 0xffffffff, 0xffffffff,
    0xffffffff, 0xffffffff, 0xffffffff, 0xffffffff, 0xffffffff, 0xffffffff, 0xffffffff, 0xffffffff,
    0xffffffff, 0xffffffff, 0xffffffff, 0xffffffff, 0xffffffff, 0xffffffff, 0xffffffff, 0xffffffff,
    0xffffffff, 0xffffffff, 0xffffffff, 0xffffffff, 0xffffffff, 0xffffffff, 0xffffffff, 0xffffffff,
    0xffffffff, 0xffffffff, 0xffffffff, 0xffffffff, 0xffffffff, 0xffffffff, 0xffffffff, 0xffffffff,
    0x21050212, 0x210a0212, 0x210f0212, 0x21140212, 0x21190212, 0x211e0212, 0x21230212, 0x212d0212,
    0x21320212, 0x21370212, 0x213c0212, 0x21410212, 0x21460212, 0x21500212, 0x21550212, 0x215a0212,
    0x215f0212, 0x21640212, 0x21690212, 0x216e0212, 0x21780212, 0x217d0212, 0x21820212, 0x21870212,
    0x218c0212, 0x21910212, 0x21960212, 0x219b0212, 0x21a00212, 0x21a50212, 0x21aa0212, 0x21b40212,
    0x21b90212, 0x21280212, 0x214b0212, 0x21730212, 0x21af0212, 0x21d20212, 0xffffffff, 0xffffffff,
    0xffffffff, 0xffffffff, 0xffffffff, 0xffffffff, 0xffffffff, 0xffffffff, 0xffffffff, 0xffffffff,
    0x21050202, 0x210a0202, 0x210f0202, 0x21140202, 0x21190202, 0x211e0202, 0x21230202, 0x212d0202,
    0x21320202, 0x21370202, 0x213c0202, 0x21410202, 0x21460202, 0x21500202, 0x21550202, 0x215a0202,
    0x215f0202, 0x21640202, 0x21690202, 0x216e0202, 0x21780202, 0x217d0202, 0x21820202, 0x21870202,
    0x218c0202, 0x21910202, 0x21960202, 0x219b0202, 0x21a00202, 0x21a50202, 0x21aa0202, 0x21b40202,
    0x21b90202, 0x21280202, 0x214b0202, 0x21730202, 0x21af0202, 0x21d20202, 0x21d70202, 0xffffffff,
    0xffffffff, 0xffffffff, 0xffffffff, 0x7dc0202, 0xffffffff, 0xffffffff, 0xffffffff, 0xffffffff,
    0x4520202, 0x4545302, 0x456a702, 0x4590302, 0x45b5502, 0x45da702, 0x4601002, 0x4626a02,
    0x464bf02, 0x4671f02, 0x4697902, 0x46bd502, 0x46e7b02, 0x470ce02, 0x4732402, 0x4757902,
    0x477ca02, 0x47a1d02, 0x47c7002, 0x458f902, 0x458f802, 0x458fa02, 0x458fb02, 0x45b5402,
    0x45ffa02, 0x45ffd02, 0x4600d02, 0x4600e02, 0x4626302, 0x4626902, 0x464bb02, 0x464bc02,
    0x464bd02, 0x4671202, 0x4671302, 0x4671402, 0x4671502, 0x4671602, 0x4671702, 0x4671802,
    0x4671902, 0x4671a02, 0x4671b02, 0x4671d02, 0x4671e02, 0x4697202, 0x4697302, 0x4697402,
    0x4697502, 0x4697602, 0x4697702, 0x4697802, 0x4697a02, 0x46bce02, 0x46bcd02, 0x46bcf02,
    0x46bd002, 0x46bd102, 0x46bd202, 0x46bd302, 0x4672002, 0x4697b02, 0x4672102, 0x4697c02,
    0x46bd402, 0x46e6c02, 0x46e6e02, 0x46e6f02, 0x46e7002, 0x46e7102, 0x46e7302, 0x46e6b02,
    0x46e7502, 0x46e7602, 0x46e7802, 0x46e7902, 0x46e7a02, 0x4732302, 0x46e7c02, 0x470cf02,
    0x46e7d02, 0x470d002, 0x4757702, 0x4757802, 0x4732502, 0x4732602, 0x47c6e02, 0x47c6f02,
    0x47ec102, 0x47ec202, 0xffffffff, 0xffffffff, 0xffffffff, 0xffffffff, 0xffffffff, 0x47ec702,
    0x46c1a02, 0x46bd602, 0x46bd702, 0x46bd802, 0x46bd902, 0x46bda02, 0x46bdb02, 0x46bdc02,
    0x46bdd02, 0x46bde02, 0x46bdf02, 0x46be002, 0x46be102, 0x46be202, 0x46be302, 0x46be402,
    0x46be502, 0x46be602, 0x46be702, 0x46be802, 0x46be902, 0x46bea02, 0x46beb02, 0x46bec02,
    0x46bed02, 0x46bee02, 0x46bef02, 0x46bf002, 0x46bf102, 0x46bf202, 0x46bf302, 0x46bf402,
    0x46bf502, 0x46bf602, 0x46bf702, 0x46bf802, 0x46bf902, 0x46bfa02, 0x46bfb02, 0x46bfc02,
    0x46bfd02, 0x46bfe02, 0x46bff02, 0x46c0202, 0x46c0302, 0x46c0402, 0x46c0502, 0x46c0602,
    0x46c0702, 0x46c0802, 0x46c0902, 0x46c0a02, 0x46c0b02, 0x46c0c02, 0x46c0d02, 0x46c0e02,
    0x46c0f02, 0x46c1002, 0x46c1102, 0x46c1202, 0x46c1302, 0x46c1502, 0x46c1402, 0x46c1602,
    0x46c1702, 0x46c1802, 0x46c1902, 0xffffffff, 0xffffffff, 0xffffffff, 0xffffffff, 0xffffffff,
    0x4520204, 0x4545304, 0x456a504, 0x456a704, 0x458fe04, 0x4590204, 0x4590304, 0x45da704,
    0x45ff804, 0x45ffe04, 0x4600304, 0x4600704, 0x4600a04, 0x4600b04, 0x4600c04, 0x4601004,
    0x4626a04, 0x4671204, 0x4671f04, 0x4697904, 0x46bd504, 0x46e7b04, 0x4732404, 0x4757904,
    0x477ca04, 0x47a1d04, 0x47c7004, 0x456a404, 0x456a604, 0x458f904, 0x458fa04, 0x458fc04,
    0x458fd04, 0x458ff04, 0x45b5404, 0x45b5604, 0x45ff904, 0x45ffa04, 0x45ffb04, 0x45ffc04,
    0x45ffd04, 0x45fff04, 0x4600204, 0x4600404, 0x4600504, 0x4600604, 0x4600804, 0x4600904,
    0x4600c04, 0x4600f04, 0x4626104, 0x4626204, 0x4626304, 0x4626404, 0x4626504, 0x4626604,
    0x4626704, 0x4626804, 0x4626904, 0x464be04, 0x4671b04, 0x4671c04, 0x4671d04, 0x4697204,
    0x4697404, 0x4697504, 0x4697704, 0x46bd404, 0x46e6c04, 0x46e6d04, 0x46e6b04, 0x46e7704,
    0x46e7a04, 0x46e7204, 0x46e7404, 0x47c6e04, 0x47c6f04, 0x47ec304, 0x47ec404, 0x47ec504,
    0x47ec604, 0x47ec204, 0xffffffff, 0xffffffff, 0xffffffff, 0xffffffff, 0xffffffff, 0xffffffff,
    0xffffffff, 0xffffffff, 0xffffffff, 0xffffffff, 0xffffffff, 0xffffffff, 0xffffffff, 0xffffffff,
    0xffffffff, 0xffffffff, 0xffffffff, 0xffffffff, 0xffffffff, 0xffffffff, 0xffffffff, 0xffffffff,
    0xffffffff, 0xffffffff, 0xffffffff, 0xffffffff, 0xffffffff, 0xffffffff, 0xffffffff, 0xffffffff,
    0xffffffff, 0xffffffff, 0xffffffff, 0xffffffff, 0xffffffff, 0xffffffff, 0xffffffff, 0xffffffff,
    0xffffffff, 0xffffffff, 0xffffffff, 0xffffffff, 0xffffffff, 0xffffffff, 0xffffffff, 0xffffffff,
    0xffffffff, 0xffffffff, 0xffffffff, 0xffffffff, 0xffffffff, 0xffffffff, 0xffffffff, 0xffffffff,
    0xffffffff, 0xffffffff, 0xffffffff, 0xffffffff, 0xffffffff, 0xffffffff, 0xffffffff, 0xffffffff,
    0xffffffff, 0xffffffff, 0xffffffff, 0xffffffff, 0xffffffff, 0xffffffff, 0xffffffff, 0xffffffff,
    0xffffffff, 0xffffffff, 0xffffffff, 0xffffffff, 0xffffffff, 0xffffffff, 0xffffffff, 0xffffffff,
    0xffffffff, 0xffffffff, 0xffffffff, 0xffffffff, 0xffffffff, 0xffffffff, 0xffffffff, 0xffffffff,
    0xffffffff, 0xffffffff, 0xffffffff, 0xffffffff, 0xffffffff, 0xffffffff, 0xffffffff, 0xffffffff,
    0xffffffff, 0xffffffff, 0xffffffff, 0xffffffff, 0xffffffff, 0xffffffff, 0xffffffff, 0xffffffff,
    0xffffffff, 0xffffffff, 0xffffffff, 0xffffffff, 0xffffffff, 0xffffffff, 0xffffffff, 0xffffffff,
    0xffffffff, 0xffffffff, 0xffffffff, 0xffffffff, 0xffffffff, 0xffffffff, 0xffffffff, 0xffffffff,
    0xffffffff, 0xffffffff, 0xffffffff, 0xffffffff, 0xffffffff, 0xffffffff, 0xffffffff, 0xffffffff,
    0xffffffff, 0xffffffff, 0xffffffff, 0xffffffff, 0xffffffff, 0xffffffff, 0xffffffff, 0xffffffff,
    0xffffffff, 0xffffffff, 0xffffffff, 0xffffffff, 0xffffffff, 0xffffffff, 0xffffffff, 0xffffffff,
    0xffffffff, 0xffffffff, 0xffffffff, 0xffffffff, 0xffffffff, 0xffffffff, 0xffffffff, 0xffffffff,
    0xffffffff, 0xffffffff, 0xffffffff, 0xffffffff, 0xffffffff, 0xffffffff, 0xffffffff, 0xffffffff,
    0xffffffff, 0xffffffff, 0xffffffff, 0xffffffff, 0xffffffff, 0xffffffff, 0xffffffff, 0xffffffff,
    0xffffffff, 0xffffffff, 0xffffffff, 0xffffffff, 0xffffffff, 0xffffffff, 0xffffffff, 0xffffffff,
    0xffffffff, 0xffffffff, 0xffffffff, 0xffffffff, 0xffffffff, 0xffffffff, 0xffffffff, 0xffffffff,
    0xffffffff, 0xffffffff, 0xffffffff, 0xffffffff, 0xffffffff, 0xffffffff, 0xffffffff, 0xffffffff,
    0xffffffff, 0xffffffff, 0xffffffff, 0xffffffff, 0xffffffff, 0xffffffff, 0xffffffff, 0xffffffff,
    0xffffffff, 0xffffffff, 0xffffffff, 0xffffffff, 0xffffffff, 0xffffffff, 0xffffffff, 0xffffffff,
    0xffffffff, 0xffffffff, 0xffffffff, 0xffffffff, 0xffffffff, 0xffffffff, 0xffffffff, 0xffffffff,
    0xffffffff, 0xffffffff, 0xffffffff, 0xffffffff, 0xffffffff, 0xffffffff, 0xffffffff, 0xffffffff,
    0xffffffff, 0xffffffff, 0xffffffff, 0xffffffff, 0xffffffff, 0xffffffff, 0xffffffff, 0xffffffff,
    0xffffffff, 0xffffffff, 0xffffffff, 0xffffffff, 0xffffffff, 0xffffffff, 0xffffffff, 0xffffffff,
    0xffffffff, 0xffffffff, 0xffffffff, 0xffffffff, 0xffffffff, 0xffffffff, 0xffffffff, 0xffffffff,
    0xffffffff, 0xffffffff, 0xffffffff, 0xffffffff, 0xffffffff, 0xffffffff, 0xffffffff, 0xffffffff,
    0xffffffff, 0xffffffff, 0xffffffff, 0xffffffff, 0xffffffff, 0xffffffff, 0xffffffff, 0xffffffff,
    0xffffffff, 0xffffffff, 0xffffffff, 0xffffffff, 0xffffffff, 0xffffffff, 0xffffffff, 0xffffffff,
    0xffffffff, 0xffffffff, 0xffffffff, 0xffffffff, 0xffffffff, 0xffffffff, 0xffffffff, 0xffffffff,
    0xffffffff, 0xffffffff, 0xffffffff, 0xffffffff, 0xffffffff, 0xffffffff, 0xffffffff, 0xffffffff,
    0xffffffff, 0xffffffff, 0xffffffff, 0xffffffff, 0xffffffff, 0xffffffff, 0xffffffff, 0xffffffff,
    0xffffffff, 0xffffffff, 0xffffffff, 0xffffffff, 0xffffffff, 0xffffffff, 0xffffffff, 0xffffffff,
    0xffffffff, 0xffffffff, 0xffffffff, 0xffffffff, 0xffffffff, 0xffffffff, 0xffffffff, 0xffffffff,
    0xffffffff, 0xffffffff, 0xffffffff, 0xffffffff, 0xffffffff, 0xffffffff, 0xffffffff, 0xffffffff,
    0xffffffff, 0xffffffff, 0xffffffff, 0xffffffff, 0xffffffff, 0xffffffff, 0xffffffff, 0xffffffff,
    0xffffffff, 0xffffffff, 0xffffffff, 0xffffffff, 0xffffffff, 0xffffffff, 0xffffffff, 0xffffffff,
    0xffffffff, 0xffffffff, 0xffffffff, 0xffffffff, 0xffffffff, 0xffffffff, 0xffffffff, 0xffffffff,
    0xffffffff, 0xffffffff, 0xffffffff, 0xffffffff, 0xffffffff, 0xffffffff, 0xffffffff, 0xffffffff,
    0xffffffff, 0xffffffff, 0xffffffff, 0xffffffff, 0xffffffff, 0xffffffff, 0xffffffff, 0xffffffff,
    0xffffffff, 0xffffffff, 0xffffffff, 0xffffffff, 0xffffffff, 0xffffffff, 0xffffffff, 0xffffffff,
    0xffffffff, 0xffffffff, 0xffffffff, 0xffffffff, 0xffffffff, 0xffffffff, 0xffffffff, 0xffffffff,
    0xffffffff, 0xffffffff, 0xffffffff, 0xffffffff, 0xffffffff, 0xffffffff, 0xffffffff, 0xffffffff,
    0xffffffff, 0xffffffff, 0xffffffff, 0xffffffff, 0xffffffff, 0xffffffff, 0xffffffff, 0xffffffff,
    0xffffffff, 0xffffffff, 0xffffffff, 0xffffffff, 0xffffffff, 0xffffffff, 0xffffffff, 0xffffffff,
    0xffffffff, 0xffffffff, 0xffffffff, 0xffffffff, 0xffffffff, 0xffffffff, 0xffffffff, 0xffffffff,
    0xffffffff, 0xffffffff, 0xffffffff, 0xffffffff, 0xffffffff, 0xffffffff, 0xffffffff, 0xffffffff,
    0xffffffff, 0xffffffff, 0xffffffff, 0xffffffff, 0xffffffff, 0xffffffff, 0xffffffff, 0xffffffff,
    0xffffffff, 0xffffffff, 0xffffffff, 0xffffffff, 0xffffffff, 0xffffffff, 0xffffffff, 0xffffffff,
    0xffffffff, 0xffffffff, 0xffffffff, 0xffffffff, 0xffffffff, 0xffffffff, 0xffffffff, 0xffffffff,
    0xffffffff, 0xffffffff, 0xffffffff, 0xffffffff, 0xffffffff, 0xffffffff, 0xffffffff, 0xffffffff,
    0xffffffff, 0xffffffff, 0xffffffff, 0xffffffff, 0xffffffff, 0xffffffff, 0xffffffff, 0xffffffff,
    0xffffffff, 0xffffffff, 0xffffffff, 0xffffffff, 0xffffffff, 0xffffffff, 0xffffffff, 0xffffffff,
    0xffffffff, 0xffffffff, 0xffffffff, 0xffffffff, 0xffffffff, 0xffffffff, 0xffffffff, 0xffffffff,
    0xffffffff, 0xffffffff, 0xffffffff, 0xffffffff, 0xffffffff, 0xffffffff, 0xffffffff, 0xffffffff,
    0xffffffff, 0xffffffff, 0xffffffff, 0xffffffff, 0xffffffff, 0xffffffff, 0xffffffff, 0xffffffff,
    0xffffffff, 0xffffffff, 0xffffffff, 0xffffffff, 0xffffffff, 0xffffffff, 0xffffffff, 0xffffffff,
    0xffffffff, 0xffffffff, 0xffffffff, 0xffffffff, 0xffffffff, 0xffffffff, 0xffffffff, 0xffffffff,
    0xffffffff, 0xffffffff, 0xffffffff, 0xffffffff, 0xffffffff, 0xffffffff, 0xffffffff, 0xffffffff,
    0xffffffff, 0xffffffff, 0xffffffff, 0xffffffff, 0xffffffff, 0xffffffff, 0xffffffff, 0xffffffff,
    0xffffffff, 0xffffffff, 0xffffffff, 0xffffffff, 0xffffffff, 0xffffffff, 0xffffffff, 0xffffffff,
    0xffffffff, 0xffffffff, 0xffffffff, 0xffffffff, 0xffffffff, 0xffffffff, 0xffffffff, 0xffffffff,
    0xffffffff, 0xffffffff, 0xffffffff, 0xffffffff, 0xffffffff, 0xffffffff, 0xffffffff, 0xffffffff,
    0xffffffff, 0xffffffff, 0xffffffff, 0xffffffff, 0xffffffff, 0xffffffff, 0xffffffff, 0xffffffff,
    0xffffffff, 0xffffffff, 0xffffffff, 0xffffffff, 0xffffffff, 0xffffffff, 0xffffffff, 0xffffffff,
    0xffffffff, 0xffffffff, 0xffffffff, 0xffffffff, 0xffffffff, 0xffffffff, 0xffffffff, 0xffffffff,
    0xffffffff, 0xffffffff, 0xffffffff, 0xffffffff, 0xffffffff, 0xffffffff, 0xffffffff, 0xffffffff,
    0xffffffff, 0xffffffff, 0xffffffff, 0xffffffff, 0xffffffff, 0xffffffff, 0xffffffff, 0xffffffff,
    0xffffffff, 0xffffffff, 0xffffffff, 0xffffffff, 0xffffffff, 0xffffffff, 0xffffffff, 0xffffffff,
    0xffffffff, 0xffffffff, 0xffffffff, 0xffffffff, 0xffffffff, 0xffffffff, 0xffffffff, 0xffffffff,
    0xffffffff, 0xffffffff, 0xffffffff, 0xffffffff, 0xffffffff, 0xffffffff, 0xffffffff, 0xffffffff,
    0xffffffff, 0xffffffff, 0xffffffff, 0xffffffff, 0xffffffff, 0xffffffff, 0xffffffff, 0xffffffff,
    0xffffffff, 0xffffffff, 0xffffffff, 0xffffffff, 0xffffffff, 0xffffffff, 0xffffffff, 0xffffffff,
    0xffffffff, 0xffffffff, 0xffffffff, 0xffffffff, 0xffffffff, 0xffffffff, 0xffffffff, 0xffffffff,
    0xffffffff, 0xffffffff, 0xffffffff, 0xffffffff, 0xffffffff, 0xffffffff, 0xffffffff, 0xffffffff,
    0xffffffff, 0xffffffff, 0xffffffff, 0xffffffff, 0xffffffff, 0xffffffff, 0xffffffff, 0xffffffff,
    0xffffffff, 0xffffffff, 0xffffffff, 0xffffffff, 0xffffffff, 0xffffffff, 0xffffffff, 0xffffffff,
    0xffffffff, 0xffffffff, 0xffffffff, 0xffffffff, 0xffffffff, 0xffffffff, 0xffffffff, 0xffffffff,
    0xffffffff, 0xffffffff, 0xffffffff, 0xffffffff, 0xffffffff, 0xffffffff, 0xffffffff, 0xffffffff,
    0xffffffff, 0xffffffff, 0xffffffff, 0xffffffff, 0xffffffff, 0xffffffff, 0xffffffff, 0xffffffff,
    0xffffffff, 0xffffffff, 0xffffffff, 0xffffffff, 0xffffffff, 0xffffffff, 0xffffffff, 0xffffffff,
    0xffffffff, 0xffffffff, 0xffffffff, 0xffffffff, 0xffffffff, 0xffffffff, 0xffffffff, 0xffffffff,
    0xffffffff, 0xffffffff, 0xffffffff, 0xffffffff, 0xffffffff, 0xffffffff, 0xffffffff, 0xffffffff,
    0xffffffff, 0xffffffff, 0xffffffff, 0xffffffff, 0xffffffff, 0xffffffff, 0xffffffff, 0xffffffff,
    0xffffffff, 0xffffffff, 0xffffffff, 0xffffffff, 0xffffffff, 0xffffffff, 0xffffffff, 0xffffffff,
    0xffffffff, 0xffffffff, 0xffffffff, 0xffffffff, 0xffffffff, 0xffffffff, 0xffffffff, 0xffffffff,
    0xffffffff, 0xffffffff, 0xffffffff, 0xffffffff, 0xffffffff, 0xffffffff, 0xffffffff, 0xffffffff,
    0xffffffff, 0xffffffff, 0xffffffff, 0xffffffff, 0xffffffff, 0xffffffff, 0xffffffff, 0xffffffff,
    0xffffffff, 0xffffffff, 0xffffffff, 0xffffffff, 0xffffffff, 0xffffffff, 0xffffffff, 0xffffffff,
    0xffffffff, 0xffffffff, 0xffffffff, 0xffffffff, 0xffffffff, 0xffffffff, 0xffffffff, 0xffffffff,
    0xffffffff, 0xffffffff, 0xffffffff, 0xffffffff, 0xffffffff, 0xffffffff, 0xffffffff, 0xffffffff,
    0xffffffff, 0xffffffff, 0xffffffff, 0xffffffff, 0xffffffff, 0xffffffff, 0xffffffff, 0xffffffff,
    0xffffffff, 0xffffffff, 0xffffffff, 0xffffffff, 0xffffffff, 0xffffffff, 0xffffffff, 0xffffffff,
    0xffffffff, 0xffffffff, 0xffffffff, 0xffffffff, 0xffffffff, 0xffffffff, 0xffffffff, 0xffffffff,
    0xffffffff, 0xffffffff, 0xffffffff, 0xffffffff, 0xffffffff, 0xffffffff, 0xffffffff, 0xffffffff,
    0xffffffff, 0xffffffff, 0xffffffff, 0xffffffff, 0xffffffff, 0xffffffff, 0xffffffff, 0xffffffff,
    0xffffffff, 0xffffffff, 0xffffffff, 0xffffffff, 0xffffffff, 0xffffffff, 0xffffffff, 0xffffffff,
    0xffffffff, 0xffffffff, 0xffffffff, 0xffffffff, 0xffffffff, 0xffffffff, 0xffffffff, 0xffffffff,
    0xffffffff, 0xffffffff, 0xffffffff, 0xffffffff, 0xffffffff, 0xffffffff, 0xffffffff, 0xffffffff,
    0xffffffff, 0xffffffff, 0xffffffff, 0xffffffff, 0xffffffff, 0xffffffff, 0xffffffff, 0xffffffff,
    0xffffffff, 0xffffffff, 0xffffffff, 0xffffffff, 0xffffffff, 0xffffffff, 0xffffffff, 0xffffffff,
    0xffffffff, 0xffffffff, 0xffffffff, 0xffffffff, 0xffffffff, 0xffffffff, 0xffffffff, 0xffffffff,
    0xffffffff, 0xffffffff, 0xffffffff, 0xffffffff, 0xffffffff, 0xffffffff, 0xffffffff, 0xffffffff,
    0xffffffff, 0xffffffff, 0xffffffff, 0xffffffff, 0xffffffff, 0xffffffff, 0xffffffff, 0xffffffff,
    0xffffffff, 0xffffffff, 0xffffffff, 0xffffffff, 0xffffffff, 0xffffffff, 0xffffffff, 0xffffffff,
    0xffffffff, 0xffffffff, 0xffffffff, 0xffffffff, 0xffffffff, 0xffffffff, 0xffffffff, 0xffffffff,
    0xffffffff, 0xffffffff, 0xffffffff, 0xffffffff, 0xffffffff, 0xffffffff, 0xffffffff, 0xffffffff,
    0xffffffff, 0xffffffff, 0xffffffff, 0xffffffff, 0xffffffff, 0xffffffff, 0xffffffff, 0xffffffff,
    0xffffffff, 0xffffffff, 0xffffffff, 0xffffffff, 0xffffffff, 0xffffffff, 0xffffffff, 0xffffffff,
    0xffffffff, 0xffffffff, 0xffffffff, 0xffffffff, 0xffffffff, 0xffffffff, 0xffffffff, 0xffffffff,
    0xffffffff, 0xffffffff, 0xffffffff, 0xffffffff, 0xffffffff, 0xffffffff, 0xffffffff, 0xffffffff,
    0xffffffff, 0xffffffff, 0xffffffff, 0xffffffff, 0xffffffff, 0xffffffff, 0xffffffff, 0xffffffff,
    0xffffffff, 0xffffffff, 0xffffffff, 0xffffffff, 0xffffffff, 0xffffffff, 0xffffffff, 0xffffffff,
    0xffffffff, 0xffffffff, 0xffffffff, 0xffffffff, 0xffffffff, 0xffffffff, 0xffffffff, 0xffffffff,
    0xffffffff, 0xffffffff, 0xffffffff, 0xffffffff, 0xffffffff, 0xffffffff, 0xffffffff, 0xffffffff,
    0xffffffff, 0xffffffff, 0xffffffff, 0xffffffff, 0xffffffff, 0xffffffff, 0xffffffff, 0xffffffff,
    0xffffffff, 0xffffffff, 0xffffffff, 0xffffffff, 0xffffffff, 0xffffffff, 0xffffffff, 0xffffffff,
    0xffffffff, 0xffffffff, 0xffffffff, 0xffffffff, 0xffffffff, 0xffffffff, 0xffffffff, 0xffffffff,
    0xffffffff, 0xffffffff, 0xffffffff, 0xffffffff, 0xffffffff, 0xffffffff, 0xffffffff, 0xffffffff,
    0xffffffff, 0xffffffff, 0xffffffff, 0xffffffff, 0xffffffff, 0xffffffff, 0xffffffff, 0xffffffff,
    0xffffffff, 0xffffffff, 0xffffffff, 0xffffffff, 0xffffffff, 0xffffffff, 0xffffffff, 0xffffffff,
    0xffffffff, 0xffffffff, 0xffffffff, 0xffffffff, 0xffffffff, 0xffffffff, 0xffffffff, 0xffffffff,
    0xffffffff, 0xffffffff, 0xffffffff, 0xffffffff, 0xffffffff, 0xffffffff, 0xffffffff, 0xffffffff,
    0xffffffff, 0xffffffff, 0xffffffff, 0xffffffff, 0xffffffff, 0xffffffff, 0xffffffff, 0xffffffff,
    0xffffffff, 0xffffffff, 0xffffffff, 0xffffffff, 0xffffffff, 0xffffffff, 0xffffffff, 0xffffffff,
    0xffffffff, 0xffffffff, 0xffffffff, 0xffffffff, 0xffffffff, 0xffffffff, 0xffffffff, 0xffffffff,
    0xffffffff, 0xffffffff, 0xffffffff, 0xffffffff, 0xffffffff, 0xffffffff, 0xffffffff, 0xffffffff,
    0xffffffff, 0xffffffff, 0xffffffff, 0xffffffff, 0xffffffff, 0xffffffff, 0xffffffff, 0xffffffff,
    0xffffffff, 0xffffffff, 0xffffffff, 0xffffffff, 0xffffffff, 0xffffffff, 0xffffffff, 0xffffffff,
    0xffffffff, 0xffffffff, 0xffffffff, 0xffffffff, 0xffffffff, 0xffffffff, 0xffffffff, 0xffffffff,
    0xffffffff, 0xffffffff, 0xffffffff, 0xffffffff, 0xffffffff, 0xffffffff, 0xffffffff, 0xffffffff,
    0xffffffff, 0xffffffff, 0xffffffff, 0xffffffff, 0xffffffff, 0xffffffff, 0xffffffff, 0xffffffff,
    0xffffffff, 0xffffffff, 0xffffffff, 0xffffffff, 0xffffffff, 0xffffffff, 0xffffffff, 0xffffffff,
    0xffffffff, 0xffffffff, 0xffffffff, 0xffffffff, 0xffffffff, 0xffffffff, 0xffffffff, 0xffffffff,
    0xffffffff, 0xffffffff, 0xffffffff, 0xffffffff, 0xffffffff, 0xffffffff, 0xffffffff, 0xffffffff,
    0xffffffff, 0xffffffff, 0xffffffff, 0xffffffff, 0xffffffff, 0xffffffff, 0xffffffff, 0xffffffff,
    0xffffffff, 0xffffffff, 0xffffffff, 0xffffffff, 0xffffffff, 0xffffffff, 0xffffffff, 0xffffffff,
    0xffffffff, 0xffffffff, 0xffffffff, 0xffffffff, 0xffffffff, 0xffffffff, 0xffffffff, 0xffffffff,
    0xffffffff, 0xffffffff, 0xffffffff, 0xffffffff, 0xffffffff, 0xffffffff, 0xffffffff, 0xffffffff,
    0xffffffff, 0xffffffff, 0xffffffff, 0xffffffff, 0xffffffff, 0xffffffff, 0xffffffff, 0xffffffff,
    0xffffffff, 0xffffffff, 0xffffffff, 0xffffffff, 0xffffffff, 0xffffffff, 0xffffffff, 0xffffffff,
    0xffffffff, 0xffffffff, 0xffffffff, 0xffffffff, 0xffffffff, 0xffffffff, 0xffffffff, 0xffffffff,
    0xffffffff, 0xffffffff, 0xffffffff, 0xffffffff, 0xffffffff, 0xffffffff, 0xffffffff, 0xffffffff,
    0xffffffff, 0xffffffff, 0xffffffff, 0xffffffff, 0xffffffff, 0xffffffff, 0xffffffff, 0xffffffff,
    0xffffffff, 0xffffffff, 0xffffffff, 0xffffffff, 0xffffffff, 0xffffffff, 0xffffffff, 0xffffffff,
    0xffffffff, 0xffffffff, 0xffffffff, 0xffffffff, 0xffffffff, 0xffffffff, 0xffffffff, 0xffffffff,
    0xffffffff, 0xffffffff, 0xffffffff, 0xffffffff, 0xffffffff, 0xffffffff, 0xffffffff, 0xffffffff,
    0xffffffff, 0xffffffff, 0xffffffff, 0xffffffff, 0xffffffff, 0xffffffff, 0xffffffff, 0xffffffff,
    0xffffffff, 0xffffffff, 0xffffffff, 0xffffffff, 0xffffffff, 0xffffffff, 0xffffffff, 0xffffffff,
    0xffffffff, 0xffffffff, 0xffffffff, 0xffffffff, 0xffffffff, 0xffffffff, 0xffffffff, 0xffffffff,
    0xffffffff, 0xffffffff, 0xffffffff, 0xffffffff, 0xffffffff, 0xffffffff, 0xffffffff, 0xffffffff,
    0xffffffff, 0xffffffff, 0xffffffff, 0xffffffff, 0xffffffff, 0xffffffff, 0xffffffff, 0xffffffff,
    0xffffffff, 0xffffffff, 0xffffffff, 0xffffffff, 0xffffffff, 0xffffffff, 0xffffffff, 0xffffffff,
    0xffffffff, 0xffffffff, 0xffffffff, 0xffffffff, 0xffffffff, 0xffffffff, 0xffffffff, 0xffffffff,
    0xffffffff, 0xffffffff, 0xffffffff, 0xffffffff, 0xffffffff, 0xffffffff, 0xffffffff, 0xffffffff,
    0xffffffff, 0xffffffff, 0xffffffff, 0xffffffff, 0xffffffff, 0xffffffff, 0xffffffff, 0xffffffff,
    0xffffffff, 0xffffffff, 0xffffffff, 0xffffffff, 0xffffffff, 0xffffffff, 0xffffffff, 0xffffffff,
    0xffffffff, 0xffffffff, 0xffffffff, 0xffffffff, 0xffffffff, 0xffffffff, 0xffffffff, 0xffffffff,
    0xffffffff, 0xffffffff, 0xffffffff, 0xffffffff, 0xffffffff, 0xffffffff, 0xffffffff, 0xffffffff,
    0xffffffff, 0xffffffff, 0xffffffff, 0xffffffff, 0xffffffff, 0xffffffff, 0xffffffff, 0xffffffff,
    0xffffffff, 0xffffffff, 0xffffffff, 0xffffffff, 0xffffffff, 0xffffffff, 0xffffffff, 0xffffffff,
    0xffffffff, 0xffffffff, 0xffffffff, 0xffffffff, 0xffffffff, 0xffffffff, 0xffffffff, 0xffffffff,
    0xffffffff, 0xffffffff, 0xffffffff, 0xffffffff, 0xffffffff, 0xffffffff, 0xffffffff, 0xffffffff,
    0xffffffff, 0xffffffff, 0xffffffff, 0xffffffff, 0xffffffff, 0xffffffff, 0xffffffff, 0xffffffff,
    0xffffffff, 0xffffffff, 0xffffffff, 0xffffffff, 0xffffffff, 0xffffffff, 0xffffffff, 0xffffffff,
    0xffffffff, 0xffffffff, 0xffffffff, 0xffffffff, 0xffffffff, 0xffffffff, 0xffffffff, 0xffffffff,
    0xffffffff, 0xffffffff, 0xffffffff, 0xffffffff, 0xffffffff, 0xffffffff, 0xffffffff, 0xffffffff,
    0xffffffff, 0xffffffff, 0xffffffff, 0xffffffff, 0xffffffff, 0xffffffff, 0xffffffff, 0xffffffff,
    0xffffffff, 0xffffffff, 0xffffffff, 0xffffffff, 0xffffffff, 0xffffffff, 0xffffffff, 0xffffffff,
    0xffffffff, 0xffffffff, 0xffffffff, 0xffffffff, 0xffffffff, 0xffffffff, 0xffffffff, 0xffffffff,
    0xffffffff, 0xffffffff, 0xffffffff, 0xffffffff, 0xffffffff, 0xffffffff, 0xffffffff, 0xffffffff,
    0xffffffff, 0xffffffff, 0xffffffff, 0xffffffff, 0xffffffff, 0xffffffff, 0xffffffff, 0xffffffff,
    0xffffffff, 0xffffffff, 0xffffffff, 0xffffffff, 0xffffffff, 0xffffffff, 0xffffffff, 0xffffffff,
    0xffffffff, 0xffffffff, 0xffffffff, 0xffffffff, 0xffffffff, 0xffffffff, 0xffffffff, 0xffffffff,
    0xffffffff, 0xffffffff, 0xffffffff, 0xffffffff, 0xffffffff, 0xffffffff, 0xffffffff, 0xffffffff,
    0xffffffff, 0xffffffff, 0xffffffff, 0xffffffff, 0xffffffff, 0xffffffff, 0xffffffff, 0xffffffff,
    0xffffffff, 0xffffffff, 0xffffffff, 0xffffffff, 0xffffffff, 0xffffffff, 0xffffffff, 0xffffffff,
    0xffffffff, 0xffffffff, 0xffffffff, 0xffffffff, 0xffffffff, 0xffffffff, 0xffffffff, 0xffffffff,
    0xffffffff, 0xffffffff, 0xffffffff, 0xffffffff, 0xffffffff, 0xffffffff, 0xffffffff, 0xffffffff,
    0xffffffff, 0xffffffff, 0xffffffff, 0xffffffff, 0xffffffff, 0xffffffff, 0xffffffff, 0xffffffff,
    0xffffffff, 0xffffffff, 0xffffffff, 0xffffffff, 0xffffffff, 0xffffffff, 0xffffffff, 0xffffffff,
    0xffffffff, 0xffffffff, 0xffffffff, 0xffffffff, 0xffffffff, 0xffffffff, 0xffffffff, 0xffffffff,
    0xffffffff, 0xffffffff, 0xffffffff, 0xffffffff, 0xffffffff, 0xffffffff, 0xffffffff, 0xffffffff,
    0xffffffff, 0xffffffff, 0xffffffff, 0xffffffff, 0xffffffff, 0xffffffff, 0xffffffff, 0xffffffff,
    0xffffffff, 0xffffffff, 0xffffffff, 0xffffffff, 0xffffffff, 0xffffffff, 0xffffffff, 0xffffffff,
    0xffffffff, 0xffffffff, 0xffffffff, 0xffffffff, 0xffffffff, 0xffffffff, 0xffffffff, 0xffffffff,
    0xffffffff, 0xffffffff, 0xffffffff, 0xffffffff, 0xffffffff, 0xffffffff, 0xffffffff, 0xffffffff,
    0xffffffff, 0xffffffff, 0xffffffff, 0xffffffff, 0xffffffff, 0xffffffff, 0xffffffff, 0xffffffff,
    0xffffffff, 0xffffffff, 0xffffffff, 0xffffffff, 0xffffffff, 0xffffffff, 0xffffffff, 0xffffffff,
    0xffffffff, 0xffffffff, 0xffffffff, 0xffffffff, 0xffffffff, 0xffffffff, 0xffffffff, 0xffffffff,
    0xffffffff, 0xffffffff, 0xffffffff, 0xffffffff, 0xffffffff, 0xffffffff, 0xffffffff, 0xffffffff,
    0xffffffff, 0xffffffff, 0xffffffff, 0xffffffff, 0xffffffff, 0xffffffff, 0xffffffff, 0xffffffff,
    0xffffffff, 0xffffffff, 0xffffffff, 0xffffffff, 0xffffffff, 0xffffffff, 0xffffffff, 0xffffffff,
    0xffffffff, 0xffffffff, 0xffffffff, 0xffffffff, 0xffffffff, 0xffffffff, 0xffffffff, 0xffffffff,
    0xffffffff, 0xffffffff, 0xffffffff, 0xffffffff, 0xffffffff, 0xffffffff, 0xffffffff, 0xffffffff,
    0xffffffff, 0xffffffff, 0xffffffff, 0xffffffff, 0xffffffff, 0xffffffff, 0xffffffff, 0xffffffff,
    0xffffffff, 0xffffffff, 0xffffffff, 0xffffffff, 0xffffffff, 0xffffffff, 0xffffffff, 0xffffffff,
    0xffffffff, 0xffffffff, 0xffffffff, 0xffffffff, 0xffffffff, 0xffffffff, 0xffffffff, 0xffffffff,
    0xffffffff, 0xffffffff, 0xffffffff, 0xffffffff, 0xffffffff, 0xffffffff, 0xffffffff, 0xffffffff,
    0xffffffff, 0xffffffff, 0xffffffff, 0xffffffff, 0xffffffff, 0xffffffff, 0xffffffff, 0xffffffff,
    0xffffffff, 0xffffffff, 0xffffffff, 0xffffffff, 0xffffffff, 0xffffffff, 0xffffffff, 0xffffffff,
    0xffffffff, 0xffffffff, 0xffffffff, 0xffffffff, 0xffffffff, 0xffffffff, 0xffffffff, 0xffffffff,
    0xffffffff, 0xffffffff, 0xffffffff, 0xffffffff, 0xffffffff, 0xffffffff, 0xffffffff, 0xffffffff,
    0xffffffff, 0xffffffff, 0xffffffff, 0xffffffff, 0xffffffff, 0xffffffff, 0xffffffff, 0xffffffff,
    0xffffffff, 0xffffffff, 0xffffffff, 0xffffffff, 0xffffffff, 0xffffffff, 0xffffffff, 0xffffffff,
    0xffffffff, 0xffffffff, 0xffffffff, 0xffffffff, 0xffffffff, 0xffffffff, 0xffffffff, 0xffffffff,
    0xffffffff, 0xffffffff, 0xffffffff, 0xffffffff, 0xffffffff, 0xffffffff, 0xffffffff, 0xffffffff,
    0xffffffff, 0xffffffff, 0xffffffff, 0xffffffff, 0xffffffff, 0xffffffff, 0xffffffff, 0xffffffff,
    0xffffffff, 0xffffffff, 0xffffffff, 0xffffffff, 0xffffffff, 0xffffffff, 0xffffffff, 0xffffffff,
    0xffffffff, 0xffffffff, 0xffffffff, 0xffffffff, 0xffffffff, 0xffffffff, 0xffffffff, 0xffffffff,
    0xffffffff, 0xffffffff, 0xffffffff, 0xffffffff, 0xffffffff, 0xffffffff, 0xffffffff, 0xffffffff,
    0xffffffff, 0xffffffff, 0xffffffff, 0xffffffff, 0xffffffff, 0xffffffff, 0xffffffff, 0xffffffff,
    0xffffffff, 0xffffffff, 0xffffffff, 0xffffffff, 0xffffffff, 0xffffffff, 0xffffffff, 0xffffffff,
    0xffffffff, 0xffffffff, 0xffffffff, 0xffffffff, 0xffffffff, 0xffffffff, 0xffffffff, 0xffffffff,
    0xffffffff, 0xffffffff, 0xffffffff, 0xffffffff, 0xffffffff, 0xffffffff, 0xffffffff, 0xffffffff,
    0xffffffff, 0xffffffff, 0xffffffff, 0xffffffff, 0xffffffff, 0xffffffff, 0xffffffff, 0xffffffff,
    0xffffffff, 0xffffffff, 0xffffffff, 0xffffffff, 0xffffffff, 0xffffffff, 0xffffffff, 0xffffffff,
    0xffffffff, 0xffffffff, 0xffffffff, 0xffffffff, 0xffffffff, 0xffffffff, 0xffffffff, 0xffffffff,
    0xffffffff, 0xffffffff, 0xffffffff, 0xffffffff, 0xffffffff, 0xffffffff, 0xffffffff, 0xffffffff,
    0xffffffff, 0xffffffff, 0xffffffff, 0xffffffff, 0xffffffff, 0xffffffff, 0xffffffff, 0xffffffff,
    0xffffffff, 0xffffffff, 0xffffffff, 0xffffffff, 0xffffffff, 0xffffffff, 0xffffffff, 0xffffffff,
    0xffffffff, 0xffffffff, 0xffffffff, 0xffffffff, 0xffffffff, 0xffffffff, 0xffffffff, 0xffffffff,
    0xffffffff, 0xffffffff, 0xffffffff, 0xffffffff, 0xffffffff, 0xffffffff, 0xffffffff, 0xffffffff,
    0xffffffff, 0xffffffff, 0xffffffff, 0xffffffff, 0xffffffff, 0xffffffff, 0xffffffff, 0xffffffff,
    0xffffffff, 0xffffffff, 0xffffffff, 0xffffffff, 0xffffffff, 0xffffffff, 0xffffffff, 0xffffffff,
    0xffffffff, 0xffffffff, 0xffffffff, 0xffffffff, 0xffffffff, 0xffffffff, 0xffffffff, 0xffffffff,
    0xffffffff, 0xffffffff, 0xffffffff, 0xffffffff, 0xffffffff, 0xffffffff, 0xffffffff, 0xffffffff,
    0xffffffff, 0xffffffff, 0xffffffff, 0xffffffff, 0xffffffff, 0xffffffff, 0xffffffff, 0xffffffff,
    0xffffffff, 0xffffffff, 0xffffffff, 0xffffffff, 0xffffffff, 0xffffffff, 0xffffffff, 0xffffffff,
    0xffffffff, 0xffffffff, 0xffffffff, 0xffffffff, 0xffffffff, 0xffffffff, 0xffffffff, 0xffffffff,
    0xffffffff, 0xffffffff, 0xffffffff, 0xffffffff, 0xffffffff, 0xffffffff, 0xffffffff, 0xffffffff,
    0xffffffff, 0xffffffff, 0xffffffff, 0xffffffff, 0xffffffff, 0xffffffff, 0xffffffff, 0xffffffff,
    0xffffffff, 0xffffffff, 0xffffffff, 0xffffffff, 0xffffffff, 0xffffffff, 0xffffffff, 0xffffffff,
    0xffffffff, 0xffffffff, 0xffffffff, 0xffffffff, 0xffffffff, 0xffffffff, 0xffffffff, 0xffffffff,
    0xffffffff, 0xffffffff, 0xffffffff, 0xffffffff, 0xffffffff, 0xffffffff, 0xffffffff, 0xffffffff,
    0xffffffff, 0xffffffff, 0xffffffff, 0xffffffff, 0xffffffff, 0xffffffff, 0xffffffff, 0xffffffff,
    0xffffffff, 0xffffffff, 0xffffffff, 0xffffffff, 0xffffffff, 0xffffffff, 0xffffffff, 0xffffffff,
    0xffffffff, 0xffffffff, 0xffffffff, 0xffffffff, 0xffffffff, 0xffffffff, 0xffffffff, 0xffffffff,
    0xffffffff, 0xffffffff, 0xffffffff, 0xffffffff, 0xffffffff, 0xffffffff, 0xffffffff, 0xffffffff,
    0xffffffff, 0xffffffff, 0xffffffff, 0xffffffff, 0xffffffff, 0xffffffff, 0xffffffff, 0xffffffff,
    0xffffffff, 0xffffffff, 0xffffffff, 0xffffffff, 0xffffffff, 0xffffffff, 0xffffffff, 0xffffffff,
    0xffffffff, 0xffffffff, 0xffffffff, 0xffffffff, 0xffffffff, 0xffffffff, 0xffffffff, 0xffffffff,
    0xffffffff, 0xffffffff, 0xffffffff, 0xffffffff, 0xffffffff, 0xffffffff, 0xffffffff, 0xffffffff,
    0xffffffff, 0xffffffff, 0xffffffff, 0xffffffff, 0xffffffff, 0xffffffff, 0xffffffff, 0xffffffff,
    0xffffffff, 0xffffffff, 0xffffffff, 0xffffffff, 0xffffffff, 0xffffffff, 0xffffffff, 0xffffffff,
    0xffffffff, 0xffffffff, 0xffffffff, 0xffffffff, 0xffffffff, 0xffffffff, 0xffffffff, 0xffffffff,
    0xffffffff, 0xffffffff, 0xffffffff, 0xffffffff, 0xffffffff, 0xffffffff, 0xffffffff, 0xffffffff,
    0xffffffff, 0xffffffff, 0xffffffff, 0xffffffff, 0xffffffff, 0xffffffff, 0xffffffff, 0xffffffff,
    0xffffffff, 0xffffffff, 0xffffffff, 0xffffffff, 0xffffffff, 0xffffffff, 0xffffffff, 0xffffffff,
    0xffffffff, 0xffffffff, 0xffffffff, 0xffffffff, 0xffffffff, 0xffffffff, 0xffffffff, 0xffffffff,
    0xffffffff, 0xffffffff, 0xffffffff, 0xffffffff, 0xffffffff, 0xffffffff, 0xffffffff, 0xffffffff,
    0xffffffff, 0xffffffff, 0xffffffff, 0xffffffff, 0xffffffff, 0xffffffff, 0xffffffff, 0xffffffff,
    0xffffffff, 0xffffffff, 0xffffffff, 0xffffffff, 0xffffffff, 0xffffffff, 0xffffffff, 0xffffffff,
    0xffffffff, 0xffffffff, 0xffffffff, 0xffffffff, 0xffffffff, 0xffffffff, 0xffffffff, 0xffffffff,
    0xffffffff, 0xffffffff, 0xffffffff, 0xffffffff, 0xffffffff, 0xffffffff, 0xffffffff, 0xffffffff,
    0xffffffff, 0xffffffff, 0xffffffff, 0xffffffff, 0xffffffff, 0xffffffff, 0xffffffff, 0xffffffff,
    0xffffffff, 0xffffffff, 0xffffffff, 0xffffffff, 0xffffffff, 0xffffffff, 0xffffffff, 0xffffffff,
    0xffffffff, 0xffffffff, 0xffffffff, 0xffffffff, 0xffffffff, 0xffffffff, 0xffffffff, 0xffffffff,
    0xffffffff, 0xffffffff, 0xffffffff, 0xffffffff, 0xffffffff, 0xffffffff, 0xffffffff, 0xffffffff,
    0xffffffff, 0xffffffff, 0xffffffff, 0xffffffff, 0xffffffff, 0xffffffff, 0xffffffff, 0xffffffff,
    0xffffffff, 0xffffffff, 0xffffffff, 0xffffffff, 0xffffffff, 0xffffffff, 0xffffffff, 0xffffffff,
    0xffffffff, 0xffffffff, 0xffffffff, 0xffffffff, 0xffffffff, 0xffffffff, 0xffffffff, 0xffffffff,
    0xffffffff, 0xffffffff, 0xffffffff, 0xffffffff, 0xffffffff, 0xffffffff, 0xffffffff, 0xffffffff,
    0xffffffff, 0xffffffff, 0xffffffff, 0xffffffff, 0xffffffff, 0xffffffff, 0xffffffff, 0xffffffff,
    0xffffffff, 0xffffffff, 0xffffffff, 0xffffffff, 0xffffffff, 0xffffffff, 0xffffffff, 0xffffffff,
    0xffffffff, 0xffffffff, 0xffffffff, 0xffffffff, 0xffffffff, 0xffffffff, 0xffffffff, 0xffffffff,
    0xffffffff, 0xffffffff, 0xffffffff, 0xffffffff, 0xffffffff, 0xffffffff, 0xffffffff, 0xffffffff,
    0xffffffff, 0xffffffff, 0xffffffff, 0xffffffff, 0xffffffff, 0xffffffff, 0xffffffff, 0xffffffff,
    0xffffffff, 0xffffffff, 0xffffffff, 0xffffffff, 0xffffffff, 0xffffffff, 0xffffffff, 0xffffffff,
    0xffffffff, 0xffffffff, 0xffffffff, 0xffffffff, 0xffffffff, 0xffffffff, 0xffffffff, 0xffffffff,
    0xffffffff, 0xffffffff, 0xffffffff, 0xffffffff, 0xffffffff, 0xffffffff, 0xffffffff, 0xffffffff,
    0xffffffff, 0xffffffff, 0xffffffff, 0xffffffff, 0xffffffff, 0xffffffff, 0xffffffff, 0xffffffff,
    0xffffffff, 0xffffffff, 0xffffffff, 0xffffffff, 0xffffffff, 0xffffffff, 0xffffffff, 0xffffffff,
    0xffffffff, 0xffffffff, 0xffffffff, 0xffffffff, 0xffffffff, 0xffffffff, 0xffffffff, 0xffffffff,
    0xffffffff, 0xffffffff, 0xffffffff, 0xffffffff, 0xffffffff, 0xffffffff, 0xffffffff, 0xffffffff,
    0xffffffff, 0xffffffff, 0xffffffff, 0xffffffff, 0xffffffff, 0xffffffff, 0xffffffff, 0xffffffff,
    0xffffffff, 0xffffffff, 0xffffffff, 0xffffffff, 0xffffffff, 0xffffffff, 0xffffffff, 0xffffffff,
    0xffffffff, 0xffffffff, 0xffffffff, 0xffffffff, 0xffffffff, 0xffffffff, 0xffffffff, 0xffffffff,
    0xffffffff, 0xffffffff, 0xffffffff, 0xffffffff, 0xffffffff, 0xffffffff, 0xffffffff, 0xffffffff,
    0xffffffff, 0xffffffff, 0xffffffff, 0xffffffff, 0xffffffff, 0xffffffff, 0xffffffff, 0xffffffff,
    0xffffffff, 0xffffffff, 0xffffffff, 0xffffffff, 0xffffffff, 0xffffffff, 0xffffffff, 0xffffffff,
    0xffffffff, 0xffffffff, 0xffffffff, 0xffffffff, 0xffffffff, 0xffffffff, 0xffffffff, 0xffffffff,
    0xffffffff, 0xffffffff, 0xffffffff, 0xffffffff, 0xffffffff, 0xffffffff, 0xffffffff, 0xffffffff,
    0xffffffff, 0xffffffff, 0xffffffff, 0xffffffff, 0xffffffff, 0xffffffff, 0xffffffff, 0xffffffff,
    0xffffffff, 0xffffffff, 0xffffffff, 0xffffffff, 0xffffffff, 0xffffffff, 0xffffffff, 0xffffffff,
    0xffffffff, 0xffffffff, 0xffffffff, 0xffffffff, 0xffffffff, 0xffffffff, 0xffffffff, 0xffffffff,
    0xffffffff, 0xffffffff, 0xffffffff, 0xffffffff, 0xffffffff, 0xffffffff, 0xffffffff, 0xffffffff,
    0xffffffff, 0xffffffff, 0xffffffff, 0xffffffff, 0xffffffff, 0xffffffff, 0xffffffff, 0xffffffff,
    0xffffffff, 0xffffffff, 0xffffffff, 0xffffffff, 0xffffffff, 0xffffffff, 0xffffffff, 0xffffffff,
    0xffffffff, 0xffffffff, 0xffffffff, 0xffffffff, 0xffffffff, 0xffffffff, 0xffffffff, 0xffffffff,
    0xffffffff, 0xffffffff, 0xffffffff, 0xffffffff, 0xffffffff, 0xffffffff, 0xffffffff, 0xffffffff,
    0xffffffff, 0xffffffff, 0xffffffff, 0xffffffff, 0xffffffff, 0xffffffff, 0xffffffff, 0xffffffff,
    0xffffffff, 0xffffffff, 0xffffffff, 0xffffffff, 0xffffffff, 0xffffffff, 0xffffffff, 0xffffffff,
    0xffffffff, 0xffffffff, 0xffffffff, 0xffffffff, 0xffffffff, 0xffffffff, 0xffffffff, 0xffffffff,
    0xffffffff, 0xffffffff, 0xffffffff, 0xffffffff, 0xffffffff, 0xffffffff, 0xffffffff, 0xffffffff,
    0xffffffff, 0xffffffff, 0xffffffff, 0xffffffff, 0xffffffff, 0xffffffff, 0xffffffff, 0xffffffff,
    0xffffffff, 0xffffffff, 0xffffffff, 0xffffffff, 0xffffffff, 0xffffffff, 0xffffffff, 0xffffffff,
    0xffffffff, 0xffffffff, 0xffffffff, 0xffffffff, 0xffffffff, 0xffffffff, 0xffffffff, 0xffffffff,
    0xffffffff, 0xffffffff, 0xffffffff, 0xffffffff, 0xffffffff, 0xffffffff, 0xffffffff, 0xffffffff,
    0xffffffff, 0xffffffff, 0xffffffff, 0xffffffff, 0xffffffff, 0xffffffff, 0xffffffff, 0xffffffff,
    0xffffffff, 0xffffffff, 0xffffffff, 0xffffffff, 0xffffffff, 0xffffffff, 0xffffffff, 0xffffffff,
    0xffffffff, 0xffffffff, 0xffffffff, 0xffffffff, 0xffffffff, 0xffffffff, 0xffffffff, 0xffffffff,
    0xffffffff, 0xffffffff, 0xffffffff, 0xffffffff, 0xffffffff, 0xffffffff, 0xffffffff, 0xffffffff,
    0xffffffff, 0xffffffff, 0xffffffff, 0xffffffff, 0xffffffff, 0xffffffff, 0xffffffff, 0xffffffff,
    0xffffffff, 0xffffffff, 0xffffffff, 0xffffffff, 0xffffffff, 0xffffffff, 0xffffffff, 0xffffffff,
    0xffffffff, 0xffffffff, 0xffffffff, 0xffffffff, 0xffffffff, 0xffffffff, 0xffffffff, 0xffffffff,
    0xffffffff, 0xffffffff, 0xffffffff, 0xffffffff, 0xffffffff, 0xffffffff, 0xffffffff, 0xffffffff,
    0xffffffff, 0xffffffff, 0xffffffff, 0xffffffff, 0xffffffff, 0xffffffff, 0xffffffff, 0xffffffff,
    0xffffffff, 0xffffffff, 0xffffffff, 0xffffffff, 0xffffffff, 0xffffffff, 0xffffffff, 0xffffffff,
    0xffffffff, 0xffffffff, 0xffffffff, 0xffffffff, 0xffffffff, 0xffffffff, 0xffffffff, 0xffffffff,
    0xffffffff, 0xffffffff, 0xffffffff, 0xffffffff, 0xffffffff, 0xffffffff, 0xffffffff, 0xffffffff,
    0xffffffff, 0xffffffff, 0xffffffff, 0xffffffff, 0xffffffff, 0xffffffff, 0xffffffff, 0xffffffff,
    0xffffffff, 0xffffffff, 0xffffffff, 0xffffffff, 0xffffffff, 0xffffffff, 0xffffffff, 0xffffffff,
    0xffffffff, 0xffffffff, 0xffffffff, 0xffffffff, 0xffffffff, 0xffffffff, 0xffffffff, 0xffffffff,
    0xffffffff, 0xffffffff, 0xffffffff, 0xffffffff, 0xffffffff, 0xffffffff, 0xffffffff, 0xffffffff,
    0xffffffff, 0xffffffff, 0xffffffff, 0xffffffff, 0xffffffff, 0xffffffff, 0xffffffff, 0xffffffff,
    0xffffffff, 0xffffffff, 0xffffffff, 0xffffffff, 0xffffffff, 0xffffffff, 0xffffffff, 0xffffffff,
    0xffffffff, 0xffffffff, 0xffffffff, 0xffffffff, 0xffffffff, 0xffffffff, 0xffffffff, 0xffffffff,
    0xffffffff, 0xffffffff, 0xffffffff, 0xffffffff, 0xffffffff, 0xffffffff, 0xffffffff, 0xffffffff,
    0xffffffff, 0xffffffff, 0xffffffff, 0xffffffff, 0xffffffff, 0xffffffff, 0xffffffff, 0xffffffff,
    0xffffffff, 0xffffffff, 0xffffffff, 0xffffffff, 0xffffffff, 0xffffffff, 0xffffffff, 0xffffffff,
    0xffffffff, 0xffffffff, 0xffffffff, 0xffffffff, 0xffffffff, 0xffffffff, 0xffffffff, 0xffffffff,
    0xffffffff, 0xffffffff, 0xffffffff, 0xffffffff, 0xffffffff, 0xffffffff, 0xffffffff, 0xffffffff,
    0xffffffff, 0xffffffff, 0xffffffff, 0xffffffff, 0xffffffff, 0xffffffff, 0xffffffff, 0xffffffff,
    0xffffffff, 0xffffffff, 0xffffffff, 0xffffffff, 0xffffffff, 0xffffffff, 0xffffffff, 0xffffffff,
    0xffffffff, 0xffffffff, 0xffffffff, 0xffffffff, 0xffffffff, 0xffffffff, 0xffffffff, 0xffffffff,
    0xffffffff, 0xffffffff, 0xffffffff, 0xffffffff, 0xffffffff, 0xffffffff, 0xffffffff, 0xffffffff,
    0xffffffff, 0xffffffff, 0xffffffff, 0xffffffff, 0xffffffff, 0xffffffff, 0xffffffff, 0xffffffff,
    0xffffffff, 0xffffffff, 0xffffffff, 0xffffffff, 0xffffffff, 0xffffffff, 0xffffffff, 0xffffffff,
    0xffffffff, 0xffffffff, 0xffffffff, 0xffffffff, 0xffffffff, 0xffffffff, 0xffffffff, 0xffffffff,
    0xffffffff, 0xffffffff, 0xffffffff, 0xffffffff, 0xffffffff, 0xffffffff, 0xffffffff, 0xffffffff,
    0xffffffff, 0xffffffff, 0xffffffff, 0xffffffff, 0xffffffff, 0xffffffff, 0xffffffff, 0xffffffff,
    0xffffffff, 0xffffffff, 0xffffffff, 0xffffffff, 0xffffffff, 0xffffffff, 0xffffffff, 0xffffffff,
    0xffffffff, 0xffffffff, 0xffffffff, 0xffffffff, 0xffffffff, 0xffffffff, 0xffffffff, 0xffffffff,
    0xffffffff, 0xffffffff, 0xffffffff, 0xffffffff, 0xffffffff, 0xffffffff, 0xffffffff, 0xffffffff,
    0xffffffff, 0xffffffff, 0xffffffff, 0xffffffff, 0xffffffff, 0xffffffff, 0xffffffff, 0xffffffff,
    0xffffffff, 0xffffffff, 0xffffffff, 0xffffffff, 0xffffffff, 0xffffffff, 0xffffffff, 0xffffffff,
    0xffffffff, 0xffffffff, 0xffffffff, 0xffffffff, 0xffffffff, 0xffffffff, 0xffffffff, 0xffffffff,
    0xffffffff, 0xffffffff, 0xffffffff, 0xffffffff, 0xffffffff, 0xffffffff, 0xffffffff, 0xffffffff,
    0xffffffff, 0xffffffff, 0xffffffff, 0xffffffff, 0xffffffff, 0xffffffff, 0xffffffff, 0xffffffff,
    0xffffffff, 0xffffffff, 0xffffffff, 0xffffffff, 0xffffffff, 0xffffffff, 0xffffffff, 0xffffffff,
    0xffffffff, 0xffffffff, 0xffffffff, 0xffffffff, 0xffffffff, 0xffffffff, 0xffffffff, 0xffffffff,
    0xffffffff, 0xffffffff, 0xffffffff, 0xffffffff, 0xffffffff, 0xffffffff, 0xffffffff, 0xffffffff,
    0xffffffff, 0xffffffff, 0xffffffff, 0xffffffff, 0xffffffff, 0xffffffff, 0xffffffff, 0xffffffff,
    0xffffffff, 0xffffffff, 0xffffffff, 0xffffffff, 0xffffffff, 0xffffffff, 0xffffffff, 0xffffffff,
    0xffffffff, 0xffffffff, 0xffffffff, 0xffffffff, 0xffffffff, 0xffffffff, 0xffffffff, 0xffffffff,
    0xffffffff, 0xffffffff, 0xffffffff, 0xffffffff, 0xffffffff, 0xffffffff, 0xffffffff, 0xffffffff,
    0xffffffff, 0xffffffff, 0xffffffff, 0xffffffff, 0xffffffff, 0xffffffff, 0xffffffff, 0xffffffff,
    0xffffffff, 0xffffffff, 0xffffffff, 0xffffffff, 0xffffffff, 0xffffffff, 0xffffffff, 0xffffffff,
    0xffffffff, 0xffffffff, 0xffffffff, 0xffffffff, 0xffffffff, 0xffffffff, 0xffffffff, 0xffffffff,
    0xffffffff, 0xffffffff, 0xffffffff, 0xffffffff, 0xffffffff, 0xffffffff, 0xffffffff, 0xffffffff,
    0xffffffff, 0xffffffff, 0xffffffff, 0xffffffff, 0xffffffff, 0xffffffff, 0xffffffff, 0xffffffff,
    0xffffffff, 0xffffffff, 0xffffffff, 0xffffffff, 0xffffffff, 0xffffffff, 0xffffffff, 0xffffffff,
    0xffffffff, 0xffffffff, 0xffffffff, 0xffffffff, 0xffffffff, 0xffffffff, 0xffffffff, 0xffffffff,
    0xffffffff, 0xffffffff, 0xffffffff, 0xffffffff, 0xffffffff, 0xffffffff, 0xffffffff, 0xffffffff,
    0xffffffff, 0xffffffff, 0xffffffff, 0xffffffff, 0xffffffff, 0xffffffff, 0xffffffff, 0xffffffff,
    0xffffffff, 0xffffffff, 0xffffffff, 0xffffffff, 0xffffffff, 0xffffffff, 0xffffffff, 0xffffffff,
    0xffffffff, 0xffffffff, 0xffffffff, 0xffffffff, 0xffffffff, 0xffffffff, 0xffffffff, 0xffffffff,
    0xffffffff, 0xffffffff, 0xffffffff, 0xffffffff, 0xffffffff, 0xffffffff, 0xffffffff, 0xffffffff,
    0xffffffff, 0xffffffff, 0xffffffff, 0xffffffff, 0xffffffff, 0xffffffff, 0xffffffff, 0xffffffff,
    0xffffffff, 0xffffffff, 0xffffffff, 0xffffffff, 0xffffffff, 0xffffffff, 0xffffffff, 0xffffffff,
    0xffffffff, 0xffffffff, 0xffffffff, 0xffffffff, 0xffffffff, 0xffffffff, 0xffffffff, 0xffffffff,
    0xffffffff, 0xffffffff, 0xffffffff, 0xffffffff, 0xffffffff, 0xffffffff, 0xffffffff, 0xffffffff,
    0xffffffff, 0xffffffff, 0xffffffff, 0xffffffff, 0xffffffff, 0xffffffff, 0xffffffff, 0xffffffff,
    0xffffffff, 0xffffffff, 0xffffffff, 0xffffffff, 0xffffffff, 0xffffffff, 0xffffffff, 0xffffffff,
    0xffffffff, 0xffffffff, 0xffffffff, 0xffffffff, 0xffffffff, 0xffffffff, 0xffffffff, 0xffffffff,
    0xffffffff, 0xffffffff, 0xffffffff, 0xffffffff, 0xffffffff, 0xffffffff, 0xffffffff, 0xffffffff,
    0xffffffff, 0xffffffff, 0xffffffff, 0xffffffff, 0xffffffff, 0xffffffff, 0xffffffff, 0xffffffff,
    0xffffffff, 0xffffffff, 0xffffffff, 0xffffffff, 0xffffffff, 0xffffffff, 0xffffffff, 0xffffffff,
    0xffffffff, 0xffffffff, 0xffffffff, 0xffffffff, 0xffffffff, 0xffffffff, 0xffffffff, 0xffffffff,
    0xffffffff, 0xffffffff, 0xffffffff, 0xffffffff, 0xffffffff, 0xffffffff, 0xffffffff, 0xffffffff,
    0xffffffff, 0xffffffff, 0xffffffff, 0xffffffff, 0xffffffff, 0xffffffff, 0xffffffff, 0xffffffff,
    0xffffffff, 0xffffffff, 0xffffffff, 0xffffffff, 0xffffffff, 0xffffffff, 0xffffffff, 0xffffffff,
    0xffffffff, 0xffffffff, 0xffffffff, 0xffffffff, 0xffffffff, 0xffffffff, 0xffffffff, 0xffffffff,
    0xffffffff, 0xffffffff, 0xffffffff, 0xffffffff, 0xffffffff, 0xffffffff, 0xffffffff, 0xffffffff,
    0xffffffff, 0xffffffff, 0xffffffff, 0xffffffff, 0xffffffff, 0xffffffff, 0xffffffff, 0xffffffff,
    0xffffffff, 0xffffffff, 0xffffffff, 0xffffffff, 0xffffffff, 0xffffffff, 0xffffffff, 0xffffffff,
    0xffffffff, 0xffffffff, 0xffffffff, 0xffffffff, 0xffffffff, 0xffffffff, 0xffffffff, 0xffffffff,
    0xffffffff, 0xffffffff, 0xffffffff, 0xffffffff, 0xffffffff, 0xffffffff, 0xffffffff, 0xffffffff,
    0xffffffff, 0xffffffff, 0xffffffff, 0xffffffff, 0xffffffff, 0xffffffff, 0xffffffff, 0xffffffff,
    0xe025a12, 0xe025a02, 0xe091012, 0xe091002, 0xe095812, 0xe095802, 0xe095512, 0xe095502,
    0xe0a2812, 0xe0a2802, 0xe1a1012, 0xe1a1002, 0xe1a5812, 0xe1a5802, 0xe1a5512, 0xe1a5502,
    0xe1a1c12, 0xe1a1c02, 0xe1a6012, 0xe1a6002, 0xe212412, 0xe212402, 0xe212312, 0xe212302,
    0xe216012, 0xe216002, 0xe216312, 0xe216302, 0xe212f12, 0xe212f02, 0xe231012, 0xe231002,
    0xe251712, 0xe251702, 0xe2c1012, 0xe2c1002, 0xe2c5812, 0xe2c5802, 0xe2c1312, 0xe2c1302,
    0xe2c1c12, 0xe2c1c02, 0xe2c6112, 0xe2c6102, 0xe326312, 0xe326302, 0xe321f12, 0xe321f02,
    0xe360e12, 0xe360e02, 0xe365812, 0xe365802, 0xe365512, 0xe365502, 0xe485812, 0xe485802,
    0xe486e12, 0xe486e02, 0xe485512, 0xe485502, 0xe486012, 0xe486002, 0xe510e12, 0xe510e02,
    0xe511012, 0xe511002, 0xe515812, 0xe515802, 0xe701012, 0xe701002, 0xe705812, 0xe705802,
    0xe705512, 0xe705502, 0xe706012, 0xe706002, 0xe7c2512, 0xe7c2502, 0xe7c2a12, 0xe7c2a02,
    0xe7c2412, 0xe7c2402, 0xe7c2312, 0xe7c2302, 0xe7e0e12, 0xe7e0e02, 0xe7e1012, 0xe7e1002,
    0xe8a1012, 0xe8a1002, 0xe8a5812, 0xe8a5802, 0xe8a6e12, 0xe8a6e02, 0xe8a5512, 0xe8a5502,
    0xe911012, 0xe911002, 0xe915812, 0xe915802, 0xe911d12, 0xe911d02, 0xe912212, 0xe912202,
    0xe916812, 0xe916802, 0xe991012, 0xe991002, 0xe995812, 0xe995802, 0xe995512, 0xe995502,
    0xe996012, 0xe996002, 0xe9f5912, 0xe9f5902, 0xe9f6312, 0xe9f6302, 0xe9f5a12, 0xe9f5a02,
    0xe9f2512, 0xe9f2502, 0xe9f2812, 0xe9f2802, 0xea21912, 0xea21902, 0xea25812, 0xea25802,
    0xea40f12, 0xea40f02, 0xea40e12, 0xea40e02, 0xea41312, 0xea41302, 0xea41012, 0xea41002,
    0xea45812, 0xea45802, 0xea61012, 0xea61002, 0xea61312, 0xea61302, 0xea71012, 0xea71002,
    0xea91212, 0xea91202, 0xea95812, 0xea95802, 0xea95512, 0xea95502, 0xe2c5502, 0xe991302,
    0xea41a02, 0xea71a02, 0xe026902, 0xffffffff, 0xffffffff, 0xffffffff, 0xffffffff, 0xffffffff,
    0xe025912, 0xe025902, 0xe024312, 0xe024302, 0xe021e12, 0xe021e02, 0xe021f12, 0xe021f02,
    0xe025512, 0xe025502, 0xe022912, 0xe022902, 0xe026a12, 0xe026a02, 0xe022112, 0xe022102,
    0xe022212, 0xe022202, 0xe025812, 0xe025802, 0xe022c12, 0xe022c02, 0xe026d12, 0xe026d02,
    0xe215812, 0xe215802, 0xe214312, 0xe214302, 0xe211912, 0xe211902, 0xe211e12, 0xe211e02,
    0xe211f12, 0xe211f02, 0xe215512, 0xe215502, 0xe212912, 0xe212902, 0xe216a12, 0xe216a02,
    0xe324312, 0xe324302, 0xe325812, 0xe325802, 0xe7c5812, 0xe7c5802, 0xe7c4312, 0xe7c4302,
    0xe7c1e12, 0xe7c1e02, 0xe7c1f12, 0xe7c1f02, 0xe7c5512, 0xe7c5502, 0xe7c2912, 0xe7c2902,
    0xe7c6a12, 0xe7c6a02, 0xe7c6012, 0xe7c6002, 0xe7c6112, 0xe7c6102, 0xe7c9512, 0xe7c9502,
    0xe7c6912, 0xe7c6902, 0xe7caa12, 0xe7caa02, 0xe9f5812, 0xe9f5802, 0xe9f4312, 0xe9f4302,
    0xe9f6012, 0xe9f6002, 0xe9f6112, 0xe9f6102, 0xe9f9512, 0xe9f9502, 0xe9f6912, 0xe9f6902,
    0xe9faa12, 0xe9faa02, 0xea70f12, 0xea70f02, 0xea75812, 0xea75802, 0xea74412, 0xea74402,
    0xea71912, 0xea71902, 0xffffffff, 0xffffffff, 0xffffffff, 0xffffffff, 0xffffffff, 0xffffffff,
    0xffffffff, 0xffffffff, 0xffffffff, 0xffffffff, 0xffffffff, 0xffffffff, 0xffffffff, 0xffffffff,
    0xffffffff, 0xffffffff, 0xffffffff, 0xffffffff, 0xffffffff, 0xffffffff, 0xffffffff, 0xffffffff,
    0xffffffff, 0xffffffff, 0xffffffff, 0xffffffff, 0xffffffff, 0xffffffff, 0xffffffff, 0xffffffff,
    0xffffffff, 0xffffffff, 0xffffffff, 0xffffffff, 0xffffffff, 0xffffffff, 0xffffffff, 0xffffffff,
    0xffffffff, 0xffffffff, 0xffffffff, 0xffffffff, 0xffffffff, 0xffffffff, 0xffffffff, 0xffffffff,
    0xffffffff, 0xffffffff, 0xffffffff, 0xffffffff, 0xffffffff, 0xffffffff, 0xffffffff, 0xffffffff,
    0xffffffff, 0xffffffff, 0xffffffff, 0xffffffff, 0xffffffff, 0xffffffff, 0xffffffff, 0xffffffff,
    0xffffffff, 0xffffffff, 0xffffffff, 0xffffffff, 0xffffffff, 0xffffffff, 0xffffffff, 0xffffffff,
    0xffffffff, 0xffffffff, 0xffffffff, 0xffffffff, 0xffffffff, 0xffffffff, 0xffffffff, 0xffffffff,
    0xffffffff, 0xffffffff, 0xffffffff, 0xffffffff, 0xffffffff, 0xffffffff, 0xffffffff, 0xffffffff,
    0xffffffff, 0xffffffff, 0xffffffff, 0xffffffff, 0xffffffff, 0xffffffff, 0xffffffff, 0xffffffff,
    0xffffffff, 0xffffffff, 0xffffffff, 0xffffffff, 0xffffffff, 0xffffffff, 0xffffffff, 0xffffffff,
    0xffffffff, 0xffffffff, 0xffffffff, 0xffffffff, 0xffffffff, 0xffffffff, 0xffffffff, 0xffffffff,
    0xffffffff, 0xffffffff, 0xffffffff, 0xffffffff, 0xffffffff, 0xffffffff, 0xffffffff, 0xffffffff,
    0xffffffff, 0xffffffff, 0xffffffff, 0xffffffff, 0xffffffff, 0xffffffff, 0xffffffff, 0xffffffff,
    0xffffffff, 0xffffffff, 0xffffffff, 0xffffffff, 0xffffffff, 0xffffffff, 0xffffffff, 0xffffffff,
    0xffffffff, 0xffffffff, 0xffffffff, 0xffffffff, 0xffffffff, 0xffffffff, 0xffffffff, 0xffffffff,
    0xffffffff, 0xffffffff, 0xffffffff, 0xffffffff, 0xffffffff, 0xffffffff, 0xffffffff, 0xffffffff,
    0xffffffff, 0xffffffff, 0xffffffff, 0xffffffff, 0xffffffff, 0xffffffff, 0xffffffff, 0xffffffff,
    0xffffffff, 0xffffffff, 0xffffffff, 0xffffffff, 0xffffffff, 0xffffffff, 0xffffffff, 0xffffffff,
    0xffffffff, 0xffffffff, 0xffffffff, 0xffffffff, 0xffffffff, 0xffffffff, 0xffffffff, 0xffffffff,
    0xffffffff, 0xffffffff, 0xffffffff, 0xffffffff, 0xffffffff, 0xffffffff, 0xffffffff, 0xffffffff,
    0xffffffff, 0xffffffff, 0xffffffff, 0xffffffff, 0xffffffff, 0xffffffff, 0xffffffff, 0xffffffff,
